<pad>
<bos>
<eos>
<unk>
.
a
in
ein
einem
,
the
eine
und
mit
auf
on
man
mann
is
and
of
einer
with
an
der
frau
woman
die
two
zwei
are
einen
to
im
people
at
wearing
von
young
sich
white
shirt
dem
mädchen
junge
black
his
while
vor
zu
blue
men
steht
sitting
red
den
girl
boy
dog
männer
sitzt
hund
standing
playing
group
person
street
straße
während
down
walking
gruppe
her
hält
spielt
front
das
hemd
holding
ball
hat
personen
über
one
drei
by
water
eines
three
blauen
ist
frauen
roten
women
kind
weißen
neben
aus
stehen
up
spielen
am
green
sitzen
menschen
little
for
as
durch
looking
child
geht
bei
outside
fährt
trägt
hand
large
wasser
through
um
kinder
yellow
kleines
children
brown
macht
springt
from
their
schwarzen
into
kleiner
entlang
&quot;
small
park
next
leute
other
dressed
out
gehen
some
-@@
over
building
etwas
riding
running
mehrere
orange
seinem
er
oberteil
großen
near
jacket
t-shirt
another
around
baby
grünen
stand
jungen
field
kleidung
es
sidewalk
beach
crowd
jeans
jacke
läuft
pink
stands
be@@
jumping
shorts
sits
table
fahrrad
sind
behind
ge@@
für
hintergrund
freien
schaut
grass
bike
strand
luft
anderen
background
snow
city
junger
tisch
&apos;s
hut
girls
air
top
gelben
hinter
gebäude
player
sie
nach
looks
asian
wall
band
andere
dogs
dress
several
that
kleine
older
four
off
vier
camera
nähe
wird
beim
boden
schwarzer
talking
essen
lady
something
sand
kleinen
soccer
kamera
menschenmenge
skateboard
walks
along
guitar
boys
hair
working
paar
play
er@@
food
hunde
rock
together
a@@
gras
vorbei
hoch
pool
smiling
des
schnee
rennt
restaurant
ten
gray
it
game
picture
has
ihre
an@@
s
car
plays
unter
kleid
feld
holds
ver@@
ihren
pants
bench
fahren
road
side
gitarre
him
old
e
glasses
e@@
s@@
walk
sit
stage
t@@
carrying
couple
älterer
rennen
sein
brille
bühne
bank
g@@
draußen
zusammen
ihr
them
en@@
bicycle
t
als
i@@
braunen
male
face
foto
baseball
herum
race
tree
weißer
kopf
seine
basketball
blickt
hose
sehen
taking
gehweg
stadt
each
d@@
uniform
en
football
te
laufen
doing
dabei
seinen
weg
k@@
day
head
across
watching
dirt
guy
boat
there
area
blond
re@@
bus
in@@
liegt
team
tragen
hinunter
versucht
arbeitet
brauner
tennis
jumps
back
be
hands
ter
ground
m@@
female
room
kids
schauen
performing
dame
ch@@
coat
wand
wie
große
or
who
its
eating
ed
he
f@@
machen
lächelt
sch@@
being
gen
using
striped
orangefarbenen
suit
ihrem
arbeiten
schwarz
ers
di@@
watch
under
b@@
ältere
horse
many
store
halten
ihm
tag
boot
mouth
o@@
purple
junges
zeigt
arm
sign
long
this
bürgersteig
hosen
liest
look
outfit
sieht
spricht
runs
reading
players
un@@
unterhalten
construction
sunglasses
spieler
haaren
helm
clothing
microphone
pferd
y
c@@
p@@
mountain
mantel
ocean
rosa
toy
auf@@
dark
workers
during
viele
de@@
grauen
sonnenbrille
z@@
middle
watches
weißem
zum
bild
climbing
ing
blauem
gekleidete
past
trick
work
elderly
ins
seiner
anzug
ein@@
against
auto
gesicht
helmet
ra@@
train
dancing
singt
window
klettert
n@@
ihnen
rides
all
al@@
chair
führt
they
about
graffiti
posing
weiß
five
spiel
ab@@
covered
bag
de
fußball
posiert
trees
u@@
darauf
felsen
having
outdoor
st@@
waiting
wooden
arbeiter
d
fünf
raum
shirts
einige
very
befindet
blauer
li@@
swimming
getting
bar
wirft
baum
floor
ice
stuhl
blau
line
trying
mikrofon
colorful
g
le@@
schild
la@@
fenster
schwarzem
sehr
statue
weiße
busy
gekleideter
fence
jump
singing
ge
cart
geschäft
trikot
ds
meer
pullover
ro@@
rotem
wiese
oder
schwarze
springen
truck
book
kindern
langen
roter
ung
wald
hand@@
high
schen
big
frisbee
isst
k
light
lo@@
ride
hill
holz@@
inside
laying
market
männern
o
se@@
wagen
anderer
bluse
board
hats
mütze
cap
do@@
gestreiften
i
se
tan
wartet
aus@@
body
bright
h@@
motorrad
kitchen
others
cellphone
el@@
grassy
l
path
si@@
v@@
alter
buch
parade
someone
ern
ma@@
making
ri@@
ti@@
voller
-
clothes
haar
night
posieren
takes
motorcycle
rot
st
ts
zug
me@@
tanzen
umbrella
werden
full
stock
towards
brick
computer
enjoying
oberkörper
sweatshirt
track
volleyball
bereitet
ger
see
surfer
zieht
hügel
metal
n
shop
markt
paper
river
swing
piece
platz
ready
reitet
tank
betrachtet
l@@
sche
she
art
blonde
ca@@
handy
hockey
leuten
party
w@@
warten
zu@@
zwischen
instrument
oben
open
snowboarder
spielzeug
ba@@
em
sweater
tasche
berg
colored
grill
schläft
ab
bäumen
worker
stick
above
lehnt
p
pa@@
painting
vor@@
bu@@
lake
adults
con@@
dance
fangen
going
house
händen
mi@@
phone
um@@
maul
music
po@@
run
seite
set
to@@
beobachtet
fluss
hard
küche
miteinander
sa@@
shopping
snowy
sp@@
tes
vest
le
sh@@
surrounded
wave
ihrer
onto
stone
ta@@
tanzt
uniforms
bauarbeiter
cowboy
crowded
kid
kleinkind
outdoors
rucksack
so@@
subway
zaun
al
couch
lächeln
photo
radfahrer
ss@@
backpack
beside
gear
schiebt
smiles
wasser@@
end
haben
mo@@
on@@
pole
2
at@@
teil
vom
welle
african
american
befinden
drinking
gegen
her@@
chen
family
it@@
rücken
schwimmbecken
treppe
bridge
denen
event
fire
flowers
über@@
ar@@
co@@
haus
lot
r@@
skateboarder
toddler
gathered
guys
ly
police
unter@@
arms
hanging
kurzen
malt
nimmt
y@@
asiatische
away
catch
ck
ert
beautiful
ck@@
ges
preparing
pro@@
show
brücke
ke
schneidet
blumen
costume
familie
gebäudes
leaning
ni@@
object
sleeping
steps
stück
verkauft
zur
after
fishing
großer
ka@@
like
machine
mitten
or@@
bikini
einander
jemand
pose
rosafarbenen
te@@
ting
trinkt
versammelt
bunten
ent@@
ex@@
fountain
m
plaid
rope
sprung
ve
ei@@
erwachsene
fe@@
geländer
hängt
shirtless
stairs
autos
chairs
ihn
lich
rocks
sen
take
teams
wa@@
adult
bo@@
ch
drink
ende
he@@
hof
rodeo
rote
ber@@
gerade
reihe
shoes
spiel@@
telefoniert
belebten
gen@@
gt
hebt
spazieren
tritt
vi@@
blicken
dock
glass
ha@@
hemden
metall@@
schlägt
schwimmt
selling
straßen@@
sunny
umgeben
bart
does
forest
mutter
winter
ger@@
gewässer
laden
new
ps
racing
ru@@
schaukel
setting
ski
we@@
wood
bikes
decke
fliegt
freiem
fußballspieler
gekleidet
kostüm
ne@@
schneebedeckten
tall
vielen
view
weste
bi@@
both
corner
flag
grünem
putting
seil
station
eren
fuß
hände
publikum
pushing
short
sonnigen
teenager
ten@@
throwing
between
ding
equipment
fla@@
have
himmel
ladies
richtung
slide
way
fest
hohen
kämpfen
laughing
pe@@
public
sofa
weißes
alte
am@@
bahn
dunklen
herunter
instruments
bed
da@@
fish
pictures
wi@@
au@@
bereiten
blaue
da
dach
fahrzeug
kopfbedeckung
land
nen
net
plastic
ramp
sen@@
zuschauen
3
asiatischer
base
blondes
eln
marathon
orangen
playground
poses
reads
sta@@
trail
ut@@
which
woods
works
yard
zuschauer
alten
beard
blick
c
concrete
der@@
fi@@
ho@@
mannes
musik
pi@@
scher
school
skirt
sten
sun
ur@@
zeitung
überqueren
midair
ons
sh
bowling
ckt
hinauf
just
led
number
papier
sk@@
stein@@
ster
th@@
den@@
enden
karierten
ken
kunststück
les
mauer
seated
braune
davon
distance
genießt
lined
mar@@
schirm
where
attire
ausrüstung
bags
get
ko@@
maschine
schuhen
stange
toward
what
zusehen
beer
box
car@@
cooking
e-@@
gelber
gibt
ker
lacht
laptop
ling
mittleren
sechs
six
stufen
veranstaltung
zuschauern
b
benutzt
bereich
blond-hair
boots
clown
cutting
filled
führen
menge
mitte
rampe
rider
right
vests
&apos;
buildings
court
cream
cross
einigen
fa@@
gegenstand
großes
left
leiter
lässt
nummer
pulling
shore
stühlen
tent
alters
baseballspieler
ches
chten
hell@@
home
korb
mensch
middle-aged
mother
spielplatz
sport@@
ssen
treten
tunnel
unterhält
;
appears
ben
bereit
cliff
concert
crossing
fotos
friends
liche
rasen
sky
smoking
stellt
trinken
zusieht
bearded
edge
few
hoch@@
j@@
ler
mountains
nahe
nebeneinander
scheint
schi@@
showing
spectators
zuschaut
armen
bett
cars
for@@
fußball@@
horses
jersey
lila
make
mannschaft
nachts
pp@@
rei@@
tra@@
ü@@
dresses
nearby
performs
scarf
son
suits
surfboard
ted
typ
apron
augen
bar@@
beton@@
bier
carries
ce
driving
hinten
kostümen
mund
outfits
perform
roller
rotes
sonne
ss
tem
tor
trikots
versuchen
zelt
zigarette
arts
coffee
fruit
leaves
legt
läufer
mehreren
time
back@@
beobachten
biker
cake
cigarette
eis@@
flower
fängt
ga@@
gentleman
holz
ls
painted
parked
pre@@
schal
schwimm@@
schürze
ste@@
structure
students
uses
various
vendor
werfen
beide
cup
flagge
gi@@
go
goggles
kniet
na@@
no
rad
raucht
sc@@
shot
ski@@
smile
sti@@
talks
tor@@
vehicle
w
westen
younger
ä@@
öffentlichen
betrachten
ble
bottle
cken
door
drums
ferne
flying
gold
hang
liegen
lit
lying
martial
nehmen
nicht
qu@@
ring
rutscht
stri@@
ter@@
tri@@
us
verschneiten
wanderer
bathing
do
et
eyes
flags
gra@@
grün
grüner
hit
hüten
kicking
paint
rutsche
ö@@
ange@@
ar
balls
blonden
bull
coming
diese
erwachsener
et@@
fahr@@
gehsteig
guckt
jackets
klettern
newspaper
parking
prepares
rain
rocky
safety
same
stra@@
su@@
swinging
unten
waves
zen
außerhalb
bucket
bärtiger
conversation
costumes
cra@@
different
drinks
fri@@
gather
gemüse
gloves
hi@@
hot
indian
lachen
mat@@
ms
pfad
practicing
tennisball
tür
bau@@
blumen@@
bunch
can
cement
cht
ci@@
cleaning
competition
dass
elt
greift
kleidern
kommt
ladder
lan@@
listening
nacht
pass
roof
scene
schwarz-weißer
skateboarding
snowboard
tie
u-bahn
y-@@
blanket
blaues
cu@@
gelbe
hold
items
ki@@
lin@@
musiker
männliche
onlookers
reden
staring
surft
t-@@
wait
wet
audience
aufschrift
balloon
bicycles
cafe
desk
display
durch@@
empty
fotografiert
geh@@
gelbem
giving
go@@
hammer
hilft
il@@
king
konzert
ks
lawn
meal
mu@@
no@@
pile
railing
schwarz-@@
skifahrer
stop
streckt
zi@@
basketballspieler
beiden
bird
brunnen
country
cre@@
flo@@
gets
leaps
lichen
licher
man@@
match
military
pf@@
schlagen
schreibt
sonnenuntergang
städtischen
t-shirts
ufer
win@@
arbeit
bowl
cher
damen
eis
erin
gathering
golf
haare
herr
hin@@
leine
pier
pointing
schnee@@
sing
sliding
sports
surfing
tischen
umgebung
vegetables
waren
wedding
überquert
before
chasing
class
competing
dra@@
eimer
facing
feet
fisch
gegend
gelb
gerät
gu@@
jacken
kan@@
ku@@
nacktem
polizisten
streets
ungs@@
versammeln
zer@@
ated
basket
blonder
bre@@
dern
erwachsenen
fahrer
gestreiftem
getränk
gs
handschuhen
helmets
huge
ke@@
lights
mask
pan@@
plate
platform
polizist
ren@@
schuhe
speaking
sprechen
uniformen
vater
zimmer
block
bride
classroom
el
garten
ging
glas
leeren
lesen
low
roll@@
rot-@@
s-@@
silver
skier
tattoo
tries
ying
ziehen
alley
anzügen
badeanzug
climbs
club
du@@
father
flie@@
genießen
h
kuchen
ping
place
purse
seen
setzt
sings
ster@@
stiefeln
traditional
tricks
tro@@
tu@@
waits
4
animal
arena
asiatischen
break
counter
d-@@
em@@
f
fighting
gel@@
gelbes
har@@
haufen
jagt
kissing
musicians
pu@@
rail
regen
screen
sort
spe@@
urban
ure
was
york
abge@@
alle
braut
deck
ded
fahrrad@@
fell
females
feuer
ft
gekleideten
happy
inmitten
je@@
jo@@
kaufen
kl@@
kunst@@
landschaft
maske
men@@
netz
obst
ohne
op@@
runner
sch
schlagzeug
schwimmen
singen
site
skating
sm@@
soldaten
stroller
studio
verschiedene
wobei
arme
blo@@
braunem
business
dreht
ere
fans
grauem
grüne
hole
kneeling
kt
lap
motor@@
parkplatz
pause
r
regenschirm
riesigen
schutzhelm
schwingt
scooter
shoulder
starrt
stein
sto@@
sunset
talk
taschen
throw
walkway
wellen
writing
anderes
attempting
bald
bergen
blau-@@
blowing
che@@
christmas
fallen
fast
flasche
gebäuden
gemeinsam
ir@@
keyboard
kinderwagen
kon@@
min@@
motorradfahrer
ner
ol@@
per@@
sches
schwarzes
sohn
violin
waving
älteren
baustelle
ces
chinese
cht@@
cking
cks
course
ender
farben
finger
gan@@
gebiet
grünes
hal@@
hört
ine
jugendlicher
kappe
kunden
life
lächelnd
made
offenen
overlooking
robe
schul@@
signs
straßen
straßenecke
straßenrand
stunt
tables
ul@@
video
war@@
wo
artist
aufge@@
baum@@
blond-haired
bra@@
bubbles
bun@@
che
dieser
fel@@
fo@@
hau@@
hin
lu@@
mikrophon
mirror
officer
orangefarbener
pflanzen
pinkfarbenen
says
schoß
schw@@
so
sun@@
tasse
ug@@
umarmt
van
vogel
zurück
arbeit@@
balloons
baseball@@
bro@@
cal
cked
close
cor@@
dar@@
dunkelhäutiger
fixing
giant
gleich
gut
hoodie
ja@@
krawatte
leans
liches
putzt
renn@@
schlitten
schreibtisch
ses
softball
sonnen@@
square
stadt@@
tet
wal@@
ad@@
alone
ausge@@
berg@@
brunette
ched
collar
ders
faces
fen
foreground
gar@@
gym
helping
karate
kurz
leather
leg
lkw
ment
over@@
pin@@
pitcher
repariert
sandalen
schatten
schlange
schläger
skate
swim
teenage
tw@@
umbrellas
ung@@
vordergrund
weiß-@@
wheel
zt
asleep
ation
beugt
brightly
dancers
eh@@
electric
enjoy
fahrradfahrer
fahrrädern
festival
flugzeug
ganz
gegeneinander
gekleidetes
headphones
hängen
kurzer
legs
licht
meat
mud
podium
poster
snow@@
stadium
ste
sticks
sts
voll
vollen
wel@@
wo@@
ws
among
asiatisches
bahn@@
balanciert
bat
bedeckt
beg@@
diving
dr@@
dri@@
einkaufswagen
erten
falling
football-spieler
footballspieler
goal
gro@@
jemandem
len
loch
lächelnde
makes
office
officers
passing
pferden
photographer
ppen
reiten
sandals
schiedsrichter
schüler
schüssel
skater
skiing
spielzeug@@
squ@@
ssi@@
steigen
swings
toys
verkaufen
washing
wears
är@@
äu@@
angel@@
badehose
barefoot
bs
chi@@
church
cker
dark-haired
dessen
dirty
doorway
erde
fall
flip
friend
fällt
gegenüber
heads
held
hiking
höhe
klein@@
kreis
künstler
küsst
males
multicolored
musical
par@@
ph@@
row
singer
stre@@
ur
weibliche
winkt
ze
zeit
(
accordion
ating
bekleidung
café
canoe
chef
cloth
cur@@
drawing
ell@@
felswand
gla@@
gre@@
halsband
heben
hellbrauner
here
klassenzimmer
lauf@@
leash
lt
mobiltelefon
move
ne
orangefarbenem
performance
picking
reaching
sachen
sand@@
schlag
schulter
spiegel
sport
strecke
surfbrett
throws
traffic
ungen
ves
z
zeichen
!
)
5
auto@@
ball@@
beige
belebte
below
bri@@
bt
bäume
daughter
digging
ecke
fer
feuer@@
fleisch
gerüst
groß@@
handstand
helmen
iert
kanu
kar@@
land@@
lone
members
mon@@
oberteilen
overall
overalls
per
plastik@@
relaxing
run@@
schaufel
shallow
spar@@
steine
sting
tanz
telefon
tion
tz@@
unbefestigten
well
wor@@
wurf
atop
ats
aussieht
bade@@
bein
ben@@
bicyclist
cat
catches
catching
ct@@
davor
deep
durchs
fall@@
ff@@
foot
garden
gives
gucken
hinter@@
hugging
kajak
kick
leuchtend
me
microscope
mm@@
moving
nach@@
onen
passes
redet
rolling
schuh
seines
shovel
steigt
tre@@
ved
yo@@
zeigen
ß@@
app@@
ce@@
climb
dreadlocks
drum
ene
eri@@
flies
fun
gate
gepflasterten
hauses
hel@@
hunden
küssen
lab
leaping
makeup
mer@@
mit@@
musik@@
ort
paved
pen
pping
prepare
rand
rennstrecke
resting
schlauch
schnauze
sed
shows
sled
sleeps
spaß
stadion
sweeping
verschiedenen
x
ze@@
ans
asiatisch
basketball@@
books
braun
coats
cold
conversing
cting
desert
fahrt
farbenfrohen
form@@
formal
fre@@
fu@@
gelegt
grasbewachsenen
gri@@
gten
igen
individuals
irgend@@
kai
lastwagen
len@@
lies
lilafarbenen
lots
mikroskop
museum
männlicher
photograph
pond
puck
reiter
ringen
schultern
schönen
sculpture
seifenblasen
splashing
steinen
tanktop
teeth
teller
these
tier
tochter
trunks
upside
ut
ve@@
ver
wear
wettkampf
x@@
akkordeon
bis
blatt
cam@@
carnival
chern
closed
cro@@
customers
dd@@
det
ent
fläche
freunde
fußballspiel
gang
golden
grün-@@
gun
how
jogging
katze
kauft
kirche
klippe
kocht
küste
lau@@
plan@@
plants
points
regen@@
rest
round
spielfeld
student
stü@@
telescope
tire
town
underneath
violetten
wir@@
wrestling
än@@
ate
aussehende
bedient
bemalt
bla@@
braun-weißer
brett
bur@@
cane
center
cheerleaders
cke
cut
cyclist
dances
dinner
eat
ers@@
farbenen
freunden
gegnerischen
grauer
hellen
hiker
including
innen
inter@@
karren
kel@@
kommen
local
mat
nur
ober@@
opposing
plane
project
schaukelt
sel@@
ser
shoe
shoulders
teich
themselves
unterwegs
waters
without
wohn@@
ant
arti@@
beleuchteten
bil@@
booth
bringt
circle
crosswalk
crying
damit
driver
ely
entspannt
fight
flaggen
gasse
geige
hol@@
holt
hunde@@
infant
instrumente
instrumenten
jockey
kampf@@
kopfhörer
langem
lea@@
lie@@
mannschaften
matching
moped
mural
opening
parkbank
pipe
produce
pulled
racket
reifen
runners
sam@@
schneiden
schutzhelmen
schwimmbrille
seat
ser@@
sieben
stehenden
straw
taken
theke
ton@@
trampolin
trampoline
tuch
umarmen
ven
wooded
zusammen@@
1@@
all@@
athlete
attempts
ban@@
band@@
becher
berge
bicyclists
bl@@
ching
covering
cted
dies
einge@@
ell
enen
ens
far@@
fe
fle@@
fol@@
frei@@
gh@@
gymnast
hüpft
itt@@
jongliert
kes
kor@@
lauf
lift
nose
not
objekt
ors
ous
performer
picnic
schlamm
scht
sewing
sha@@
shed
skiern
skulptur
sli@@
sol@@
sor@@
stuffed
surface
teenagers
ters
trash
tur@@
tänzer
u
umge@@
verkäufer
vers@@
verwendet
wei@@
and@@
arm@@
ast
auftritt
balcony
barfuß
bauen
bei@@
bilder
blouse
bläst
boxes
chases
cow
dancer
dre@@
dunkler
eingang
fahnen
feldweg
fern
fro@@
ft@@
fäl@@
geben
glas@@
goes
grillt
help
hikers
himself
hoop
hören
kaffee
kn@@
kü@@
lays
linie
links
lunch
lächelnder
metall
moment
oriental
pedestrians
projekt
pushes
raft
rechts
reparieren
rollerblades
rugby
ruht
sandy
schießt
schn@@
sitzende
skis
slope
son@@
spa@@
spritzt
sse
style
taxi
tex@@
third
use
veranda
wing
wür@@
ali@@
amerikanische
asiate
auch
aussehender
bedeckten
beinen
bekommt
bent
berührt
bogen
chen@@
clear
cowboyhut
cs
dan@@
device
dun@@
dunkel@@
dunkelhäutige
farbe
fotografieren
fra@@
garage
geld
gem
geschlossenen
goalie
haar@@
handtasche
hellblauen
hockt
hula
indoor
ite
kopftuch
log
london
mahlzeit
nase
neck
ot@@
piano
pit@@
position
pri@@
pulls
puts
rin@@
sal@@
san@@
schau@@
schla@@
schwimmer
schüttelt
sco@@
seil@@
seven
shooting
sitz@@
speaks
sportler
springbrunnen
staircase
stern
stift
stoff
sänger
taucht
tennis@@
tigen
tops
turn
ty
verfolgt
wandert
werbung
wüste
ati@@
banner
behälter
blocks
boats
bringen
ction
deut@@
drives
end@@
enjoys
evening
feier
fer@@
fil@@
fin@@
geln
gentlemen
gers
gezogen
gold@@
gr@@
graben
grocery
heavy
hü@@
ie@@
ing@@
innen@@
iten
kampf
kinder@@
linken
lö@@
marching
mänteln
native
nice
nt
personengruppe
pot
pra@@
rad@@
ran@@
reinigt
saxophone
scha@@
sea@@
shaking
skateboards
strand@@
swims
teilen
tennisspieler
teppich
terrasse
tr@@
tt@@
va@@
vorbei@@
wein@@
wetsuit
wettbewerb
zwei@@
äh@@
überfüllten
3@@
5@@
age
anzu@@
asiaten
asiatin
bat@@
bel@@
bli@@
brown-haired
can@@
cha@@
cloudy
diesem
ea@@
endes
fahrräder
fair
fan@@
felsigen
feuerwehr@@
ffen
fingers
football@@
foreign
garb
geländemotorrad
hangs
heraus
hinab
jean
kayak
ked
ker@@
khaki
kicks
kissen
koch
kten
laundry
lederjacke
ledge
lei@@
let
moves
mp@@
muster
müll
ori@@
part
pe
ped
pinkfarbenem
pol@@
porch
pouring
protective
puddle
red-haired
robes
sack
salto
sandwich
schießen
shaving
sheet
ship
spi@@
spiels
sses
start
steep
stell@@
stream
streifen
sub@@
tanz@@
th
tige
tracks
traditioneller
type
tzen
umzug
water@@
waterfall
winter@@
wrapped
zeichnet
ßen
öffnet
üben
2@@
:
airplane
attached
bach
backyard
bad
bal@@
birds
blätter
boards
boun@@
bread
checking
cheerleader
ckten
clo@@
colors
com@@
ct
defen@@
denim
dieses
dro@@
eye
fest@@
flug@@
ful
gesch@@
gießt
gleitet
hellbraunen
hl@@
hockey@@
hu@@
hun@@
id
kann
karte
kel
kerl
kiss
luggage
mor@@
mound
nachdem
nassen
opposite
ops
paddling
palm
pen@@
pferde
pfütze
poles
polo
put
reaches
red-hair
rothaarige
rück@@
sale
schirmen
schnell
sea
shoveling
skirts
soldiers
sprin@@
sters
stru@@
tru@@
try
untersucht
verkehr
vers
wine
winterkleidung
wit@@
wäscht
zähne
&amp;
allein
balancing
balkon
beieinander
bikers
box@@
braunes
bullen
bunte
but@@
camouflage
clean
coach
col@@
cones
curb
dis@@
dol@@
ei
farbener
flight
frame
fun@@
fuß@@
fü@@
gg@@
hals
hockeyspieler
horn
image
inflatable
jerseys
kickt
kurve
laugh
le-@@
mal@@
mel@@
paddelt
park@@
passanten
pavement
pfosten
rä@@
rädern
schen@@
schlafen
schle@@
sitzender
skateboardfahrer
soldier
spor@@
stapel
stellen
string
stä@@
tan@@
tongue
tools
weitere
wer@@
wheelchair
will
windows
wurde
you
zunge
übt
0@@
amerikanischen
ballerina
becken
beton
bmx
bottom
bräutigam
brünette
bubble
buying
büro
chter
color
courtyard
cowboys
curly
cyclists
derby
din@@
eats
fabric
farbigen
floating
floral
fresh
frisch
fußgänger
fä@@
gel
getränke
gezeigt
gräbt
gs@@
haariger
happily
head@@
helfen
juggling
kampfsport
koffer
laptops
lassen
laughs
living
luftballons
magazine
married
mobile
motorcycles
musician
ned
ob
orange-@@
plant
ppe
professional
radrennen
railroad
rasiert
riders
rit@@
santa
schuh@@
sees
sell
shade
silhouette
spray
ssion
step
stool
summer
swimsuit
tafel
tau@@
teleskop
tho@@
touristen
tractor
vie@@
viel
vollführt
walls
warm
wer
wind@@
.@@
0
abzu@@
acoustic
air@@
ami@@
angelt
appear
arbeitskleidung
backwards
ballons
banan@@
bandanna
barbecue
baumstamm
bel
benutzen
ber
besen
bewegt
bucking
bü@@
carriage
cat@@
cheering
ckter
closeup
darunter
either
ery
fen@@
fischen
fl@@
flip-flops
form
garbage
gelb-@@
geschirr
goldenen
goods
grau
groom
gruppen
guard
handtuch
hellhäutiger
hinaus
hinterher
hochzeit@@
hotel
hurdle
ich
kante
kat@@
kehrt
kisten
knee
kuh
können
künst@@
lebensmittel
legen
marketplace
matte
multiple
müll@@
nap
neoprenanzug
pair
pajamas
pit
pizza
pla@@
polizei@@
por@@
restaurants
rock@@
rollstuhl
runden
scaffolding
scheibe
schreit
schöne
scra@@
shown
sitzenden
sized
socks
spitze
stan@@
straßenkünstler
sum@@
surf
suspended
touching
trommel
tte
tube
turnhalle
v
vely
vo@@
wasserfall
we
wischt
9@@
acht
advertisement
airport
alleine
amp
ang@@
animals
aring
ars
backpacks
balken
baut
berges
bling
blondem
bow
braunhaarige
candy
caught
chain
chinesischen
climber
crew
dining
direction
drummer
dry
ears
elling
entfernt
escalator
fal@@
feiern
fenced
fully
gemälde
german
geschmin@@
geschäfts
gesäumten
glücklich
grin@@
hay
heels
hen
hood
hooded
ht
hütte
ie
jagen
japanese
jungs
kapuzenpulli
kers
kneels
kochen
konzentriert
kreuzung
landscape
lang@@
laub
leder@@
live
long-haired
mer
mitglieder
mom
money
nahaufnahme
os
paints
pes
plattform
plaza
post
pped
raised
rechten
richtet
salon
serving
sheep
skates
smo@@
snack
star@@
steckt
sted
stop@@
stove
stro@@
stu@@
studenten
sucht
sä@@
tel
tennisschläger
tern
tisch@@
towel
training
umher
underwater
uni@@
ven@@
verkleidet
vorbeigehen
wander@@
welding
zen@@
ziert
ärmellosen
2012
8
abend
afrikanische
amusement
ary
assi@@
athletic
bass
befestigt
bending
besu@@
ble@@
bow@@
boxer
brea@@
brush
brushing
bällen
caucasian
checkered
colle@@
decorated
del@@
desig@@
ear@@
einkauf@@
eins
els
essen@@
examining
figur
first
fliegen
folgt
fotograf
freund
gas
ged
gegenstände
genen
geschäftigen
gewand
geworfen
gläsern
glück@@
gn@@
good
gravel
grilling
hl
hlen
hör@@
ic
indische
individual
ings
jemanden
kalten
karate@@
ket@@
kil@@
kin@@
kle@@
küchen@@
lehnen
lines
lächelndes
militär@@
mittel@@
motorrädern
mü@@
mützen
neon
ning
obstacle
offenem
operating
orchestra
participating
peace
pl@@
print
pur@@
rea@@
read
referee
richten
rolltreppe
rot-weißen
röcken
schildern
schlä@@
seems
sets
setzen
shaped
shes
sin@@
sitz
skatepark
skleidung
slo@@
spielerin
stadtstraße
stark
stoff@@
sur@@
sw@@
teacher
texas
things
thrown
tin@@
top@@
topf
trainiert
treffen
turn@@
vehicles
verkehr@@
waldgebiet
wed
weihnachtsbaum
weit
werk@@
wohnzimmer
ziegel@@
zwe@@
ör@@
-up
1
6
ac@@
ad
also
angezogen
ani@@
anti@@
attempt
atv
aufen
außen@@
bahnsteig
baseballkappe
benches
bewegung
bildschirm
bin@@
blei@@
bles
brot
bushaltestelle
button
bänken
bücher
cello
chest
compete
cone
crouches
daumen
decken
dig@@
domin@@
dunkelhaarige
ern@@
feeding
firefighters
foto@@
füßen
garten@@
gehalten
gelehnt
genden
geri@@
geschenk
golf@@
haircut
hallway
haltung
harness
hilfe
hitting
hn@@
hocke
hölzernen
ihres
ity
jugendliche
kahlköpfiger
kamera@@
kie@@
kiste
komplett
kopf@@
kre@@
kunststücke
kä@@
lar
lä@@
map
mehr@@
mitarbeiter
model
motocross
muddy
ner@@
ns
ny
nähert
off@@
only
opponent
out@@
papier@@
part@@
passengers
photographs
pitch
plakat
poli@@
practice
presentation
protest
racer
rast
rau@@
rec@@
res
rests
ropes
rowing
schaufelt
schutz@@
schwarz-weißen
schäferhund
scuba
seiten
sharing
she@@
sich@@
silbernen
snowboarding
sonnenbrillen
span@@
speisen
spielern
ssen@@
steilen
steinmauer
sticking
stones
streichelt
tattoos
teil@@
theater
tief
tieren
tourist
tourists
traktor
trägerhemd
tub
turning
up@@
ute
verkauf
vier@@
wagon
wandbild
wat@@
weint
werkzeug
wh@@
wie@@
wild@@
wänden
ße
action
aged
ahead
ale
ally
apple
ard
aufführung
ausgestreckten
balance
banjo
bars
bathroom
beutel
birthday
blond@@
blättern
boxing
braun-@@
brust
but
bär@@
carpet
ced
chase
chtet
cleans
college
container
craft
cricket
del
dert
digen
dish
ear
eight
ellen
ess@@
fan
figure
fli@@
fly
free
fruits
gassi
geparkt
gepäck
geräten
gesi@@
gesichts@@
getränken
go-@@
graffitis
groups
guitars
gummi@@
haariges
halb
hall
headscarf
heißen
hindernis
hinunter@@
hr@@
hugs
hän@@
hürde
inten@@
ischen
joggen
joggt
ju@@
jumpsuit
jungle
jüngeren
kau@@
kla@@
klavier
kletterer
kopfhörern
kra@@
kranken@@
krei@@
labor
langhaariger
laster
laub@@
leggings
ler@@
lit@@
loading
long-sleeved
machinery
malen
material
menschengruppe
motorcyclist
mustache
mö@@
navy
nu@@
ohr@@
oni@@
orchester
patio
pel@@
pil@@
piste
policeman
ppt
pul@@
pull
puppe
pärchen
quarterback
racetrack
rohr
ry
sammelt
schaft@@
scheinen
schiff
schmutzigen
schnurrbart
schule
sink
soldat
song
speech
sporting
stet
stier
sty@@
stöcken
tee
tig
tile
tool
turns
umhang
verschieden@@
viewing
vorn
weiß@@
werfer
werk
wide
wire
wn
wunderschönen
wäsche
yoga
zer
zuschauermenge
ähn@@
aben@@
aber
ance
angel
anlage
anlegestelle
apartment
army
atten@@
backstein@@
bare
baseballmütze
baskets
bath
bauch
beam
belt
bern
beschäftigt
beverage
bin
blume
boardwalk
bor@@
bowlingbahn
bushes
cally
case
ceiling
china
chor
chte
cing
ckigen
coo@@
cross@@
crouching
dark-skinned
deck@@
deln
dge
dia@@
dicht
direkt
discussion
dune
dy
e-gitarre
eastern
einzelner
er-@@
erd@@
ered
experiment
ey@@
falls
fancy
farm
fern@@
fire@@
fischer
flaschen
flughafen
fr@@
ften
füllt
füttert
füße
g-@@
geb@@
gelände
gelände@@
gitarrist
glo@@
great
greifen
half
hell
herd
herself
herum@@
hillside
horseback
hula-hoop-reifen
indoors
intersection
jeep
k-@@
kam@@
kegel
kerzen
klasse
knien
kro@@
kunstwerk
lacrosse
lampe
lane
leaving
lehrer
let@@
lied
mall
mann@@
medical
member
ming
mädchens
narrow
neighborhood
neon@@
nickerchen
nähmaschine
observe
petting
pilot
possibly
post@@
radfahrern
rede
ribbon
rosafarbenem
routine
rubber
rudert
rü@@
schaft
schaufenster@@
schmutzi@@
schutzbrille
see@@
seilen
sells
sho@@
shoot
sion
slides
smoke
snow-covered
space
spani@@
sportveranstaltung
spü@@
stehende
stopped
stretching
städtische
stö@@
super@@
swe@@
swimmer
szene
tattooed
teig
tents
torhüter
treppen
trumpet
turban
typen
tze
uf@@
und@@
vendors
versch@@
video@@
violettem
volleyball@@
vorbeifährt
vorrichtung
wan@@
wen@@
za@@
ziel
ßt
älteres
4@@
a-@@
afrikanischer
alen
amüsieren
angelrute
anhat
aufblasbaren
aufs
aufzu@@
ausstellung
backs
barri@@
batter
bearbeitet
beine
beißt
berühren
blau-weißen
bly
booten
bottles
bowlingkugel
bru@@
buckets
buy
bä@@
cal@@
cans
cap@@
card
cardboard
celebrating
chefs
choir
chts
clay
clowns
computers
conference
cts
dead
dinge
dishes
don@@
einkaufszentrum
eltern
entlang@@
entrance
erte
excited
fencing
fenster@@
feuerwehrmänner
ffs
findet
finger@@
finish
folding
formation
fotografen
fran@@
funny
för@@
geblümten
geschäften
geschäfts@@
gewehr
gewässers
got
guitarist
halb@@
halle
han@@
handschuh
heart
helps
herunter@@
heu
high-@@
hinterhof
histor@@
hospital
häusern
indi@@
john
kariertem
karten
kaut
keep
kette
kick@@
knie@@
lachend
lay
lebensmittel@@
leit@@
liegenden
los
maroon
marschiert
maschinen
mau@@
mechani@@
messer
metal@@
microphones
mithilfe
mixing
mohawk
more
mostly
mountainbike
nets
ohren
oli@@
oper@@
oping
organi@@
ornate
outstretched
pack
pack@@
pick@@
pieces
pper
puppy
que
regenschirmen
rela@@
rennwagen
ron@@
rot@@
rucksäcken
satz
sau@@
saw
schein@@
schlagzeuger
schmuck
schu@@
schwach
schwarz-weiß
schwimmbad
seats
shepherd
shi@@
sicht@@
socken
sportkleidung
spring
squatting
ssenen
steinigen
strohhut
them@@
til@@
trompete
u-bahn-@@
uniformed
uts
vil
wein
wett@@
wheels
yer
youth
ys
ziel@@
ß
abendessen
ari@@
ates
auszu@@
backsteingebäude
bau
bear
beigefarbenen
bestehende
bet@@
blasen
blazer
blows
blu@@
bluejeans
blü@@
bowls
boxen
bron@@
broom
bum@@
bälle
ca
calf
castle
ce-@@
cher@@
cki@@
cla@@
cloth@@
coloring
comfor@@
ctors
cuts
daneben
dire@@
dj
doctor
doors
drachen
dreck
dunkelblauen
ed@@
elle
engine
ente
erer
ethnic
factory
fahne
fahrgeschäft
farbige
fegt
feuert
feuerwehrmann
firetruck
fisherman
flachen
flipping
float
flügeln
flüssigkeit
football-@@
fröh@@
furniture
gegenseitig
gehende
geländemotorradfahrer
gespräch
ght
giert
gli@@
gol@@
grau@@
graue
griff
grillen
grinding
haarige
hair@@
haus@@
hei@@
hochzeit
hoops
hüte
inspecting
item
jack@@
jahrmarkt
jeans@@
jüngere
ka
kameras
klettergerüst
kopfüber
krie@@
kurs
köpfen
körben
leading
library
lle
medi@@
ments
mischer
motor
ob@@
offenbar
outdoor-@@
packt
pan
para@@
patient
pick
picknicktisch
pine
platte
polka
rahmen
reflective
reicht
riesige
rings
rink
roller-@@
rough
rural
saal
sandstrand
saxophon
scenery
schrei@@
schwarz-brauner
schweißt
schwenkt
sei@@
sel
sleeveless
smokes
sperr@@
spielkleidung
spinning
spraying
sprung@@
stab
stack
star
stares
stat@@
stelle
storefront
str@@
stripes
stroll
stufe
sword
tered
tier@@
tiere
tiger
tly
trainer
transpor@@
unds
vegetable
waffe
wagens
wand@@
wheelie
wissenschaft@@
wunder@@
zeit@@
zeitschrift
zieren
zing
zuge@@
zäh@@
äl@@
act
ado@@
approaching
arbeits@@
arch@@
ation@@
ator
baby@@
badewanne
bahnhof
balances
balding
ballon
barrel
begutachtet
bekommen
beleuchtung
bewölkten
bild@@
bon@@
br@@
brandung
brief@@
broken
bunt
bunter
büro@@
candles
cape
care
carving
catcher
chalk
clad
cli@@
come
computer@@
cool
crane
cru@@
dam@@
discussing
dose
downtown
druck
drückt
duck
dunkelhaariger
einzel@@
ele@@
elephant
emergency
ence
entspannen
ets
ette
expre@@
farbenfroher
feld@@
fels@@
fix
fluffy
flöte
folded
following
ford
frisbeescheibe
fußballfeld
führung
gelb@@
geldbörse
gern
geschäftskleidung
gleisen
grimasse
gui@@
gymnasium
helme
herab
herr@@
hor@@
houses
händler
hö@@
iel@@
il
instru@@
intently
jeansjacke
jewelry
jockeys
jubeln
kalb
ken@@
khaki@@
kilt
kir@@
kite
kli@@
kni@@
kno@@
koch@@
kugel
kurz@@
köche
köpfige
körper
lamp
lat@@
leicht
lern
lifting
listens
ll@@
marschieren
mes
mittag
motorbike
musi@@
my
naked
name
nighttime
noch
objects
operation
overhead
paddeln
paint@@
parents
parkt
pfan@@
pflü@@
pigeons
planscht
plat@@
plates
pt
pun@@
que@@
rainy
raises
ral
rasi@@
reach
red@@
reinigen
rennauto
rod
rollt
sanddüne
schlafanzug
schmetter@@
schwer@@
schö@@
setz@@
sicht
sides
skateboard@@
skil@@
speed
sportwagen
spread
sprüh@@
stairway
stangen
starting
statt
story
straßenhändler
stöcke
surrounding
sweat@@
sängerin
tain
team@@
techni@@
television
tied
tigt
times
trainieren
treibt
trucks
ttern
turned
turnerin
untersuchen
ures
verlassen
wandern
war
ward
waschen
waschsalon
wasserflasche
welpen
wettrennen
wife
wirbelt
wn@@
zone
zug@@
&apos;t
-down
-like
6@@
advertising
afro@@
afroamerikaner
amongst
aufnahme
augen@@
ballet@@
barber
baseballspiel
baumes
beam@@
beln
beneath
bespritzt
bewundert
bier@@
bietet
biking
black@@
blau@@
blin@@
blow
blumenmuster
branch
braun-schwarzer
braun@@
bus@@
bückt
büschen
called
cameras
caps
cheerleader@@
cker@@
comple@@
control
converse
corn
crosses
cut@@
dach@@
dazu
dig
directions
diskutieren
drei@@
dru@@
dum@@
eingezäunten
einrad
eishockeyspieler
electronic
engaged
engen
esel
ey
fallschirm
farb@@
farbenes
feiert
felsen@@
fernglas
festhält
fireman
fisch@@
flan@@
flowered
flur
follows
forward
freiluft@@
frisur
fs
fußgängerüberweg
förmigen
gefüllt
gele@@
gend
gewändern
ggy
gleichen
grand@@
gras@@
grasfläche
grau-@@
headband
hinein
hits
hoben
hochzeits@@
hoo@@
hrt
hug
ini@@
inn@@
iter
kaffee@@
kapuze
keit
kie
kleidungs@@
kletter@@
konstruktion
lange
lar@@
lasso
leu@@
liquid
ll
logo
lounge
lounging
löffel
maulkorb
mittagessen
monument
motorroller
motorräder
mountain@@
nack@@
nah
necklace
neu@@
newborn
numerous
näh@@
näht
observing
oc@@
odd
orangefarbene
oranges
p-@@
palmen
papers
parasailing
partially
participate
pass@@
pea@@
pft
photos
pinata
pira@@
point
polo@@
pottery
present
profession@@
protesting
pum@@
putzen
raising
redheaded
relax
repair
rug
ruhigen
runter
schau
schaufenster
schei@@
scheinbar
schieben
schilder
schlitt@@
schotter@@
schri@@
schubkarre
schwarzwei@@
security
shades
shaved
shel@@
shovels
sig@@
smaller
sna@@
sommer@@
spaziergang
sprinkl@@
sprinkler
ssed
ssing
sst
starren
stei@@
sten@@
stil
stirn
stücke
suchen
swimmers
tack@@
tal@@
tch
teaching
teammate
teenageralter
tennisspielerin
terrain
test
thin
ties
tle
tribüne
trock@@
turner
tä@@
tö@@
ufer@@
unicycle
usa
uti@@
vel@@
verkleidete
verlässt
versammlung
vielleicht
village
ving
violine
vorne
vorüber
vögel
wald@@
waldweg
weg@@
weihnachts@@
wendet
werkstatt
whi@@
white-@@
wings
world
wrestle
wur@@
xes
zahlreiche
zahn@@
zed
zeichnung
zeugen
ziegelmauer
zöpfen
überprüft
ün@@
#
11
8@@
?
achterbahn
admiring
afroamerikanische
ages
airborne
aisle
akustikgitarre
ameri@@
america
aqu@@
aquarium
asiatinnen
athletes
aussehenden
bauarbeiten
beanie
beginnt
bett@@
bewegen
bibliothek
billboard
binoculars
blau-gelben
book@@
brauen
brillen
busses
by-@@
bändern
bücher@@
bürger@@
calm
camel
cards
carry
casual
char@@
charac@@
cobblestone
collie
conven@@
cook
crafts
dad
dding
deckt
dekorati@@
demonstration
donkey
dough
drinnen
east
einsamer
eling
en-@@
entertain@@
entlanggeht
ertes
essens@@
etten
fahrrads
fahrzeuge
fahrzeugs
fake
farbene
farbenfro@@
figuren
filmt
firemen
flips
folgen
gebeugt
gegner
gei@@
gemüse@@
gera@@
geschen@@
gest@@
gestreiftes
gift
glatzköpfiger
gle
glei@@
gleichzeitig
glove
grimassen
grund@@
guards
guns
gy@@
gürtel
haarigen
hafen@@
hier
hil@@
hochge@@
holen
homeless
hotdog
häu@@
ily
indischer
interacting
intervie@@
ite@@
job
jubelt
kamel@@
karten@@
karton
karussell
khakifarbenen
khakis
kindes
klassenraum
klatscht
kleider
kunststoff@@
kur@@
laden@@
lager@@
landet
leads
leinwand
lichem
ligen
listen
lobby
lockigen
love
ländlichen
machines
marine@@
mic
mid
mischen
mitglied
mmed
modern
monitor
most
moti@@
multi@@
nam@@
netze
neue
neugeborenes
ney
noti@@
nächsten
oberfläche
oes
ofen
oms
ora@@
own
paddle
passenden
passenger
peering
performers
pferde@@
photographed
pillow
pony
pretty
produkte
push
races
rainbow
rande
receiving
regi@@
reifenschaukel
ren
rennens
repairs
rettungswesten
rist@@
rosafarbene
rosafarbener
rothaariges
rows
sat@@
sbe@@
scarves
schaufeln
schaukeln
sche@@
schirme
schmutz
schreiben
schulkinder
science
seh@@
sessel
shakes
share
shine
shining
shops
silber@@
silly
sit@@
skiers
skul@@
slee@@
slightly
snowboardfahrer
softball@@
spielzeug-@@
splashes
spo@@
spon@@
spre@@
spritzen
sprüht
steel
stehender
stellung
stic
stirnband
stol@@
straight
street@@
struktur
stürzt
tackle
tal
target
tarn@@
tauben
taucher
tea
teilweise
tete
teten
thedra@@
tief@@
tomat@@
ton
tower
tracht
trailer
treiben
trommeln
trunk
tun@@
turm
twir@@
tätowi@@
tür@@
tüte
tüten
ue
uhr
unterschied@@
upon
verdeckt
vorbeigeht
vorüber@@
wading
weaving
webt
whilst
wild
wrestler
wärts
xi@@
yed
zubereitet
zusammenge@@
10
9
abends
ai@@
alt@@
altes
ansicht
arzt
asien
attention
attra@@
auditorium
aufmerksam
autumn
bandana
barfüßige
barrier
basketballspiel
bb@@
bedeck@@
bela@@
bell@@
bereit@@
bilden
bleachers
boot@@
boote
boss
bricht
browsing
buffet
bull@@
burgundy
button@@
bystanders
bühnen@@
bündel
carts
ceremony
chainsaw
chan@@
check
checks
cheer
chs
cle@@
co
coaster
comes
company
computerbildschirm
consisting
cool@@
cowboy@@
craw@@
cup@@
cups
customer
debris
dimly
diri@@
diver
doll
dreh@@
drill
dusk
dünn@@
eggs
einzu@@
elefanten
elmo
enten
enter@@
entering
entre@@
ents
erung
es@@
exam@@
examines
fallschirm@@
farmer
fass
fetti
feuerwehrleute
filling
film@@
fingern
floß
flu@@
flute
four@@
frü@@
früchte
fänger
gebaut
gefüllten
gehender
gelassen
gelen@@
gelt
gemacht
gemu@@
gender
geparkten
gerä@@
geschi@@
gesichtsbemalung
gestikuliert
gestures
gewickelt
greyhound
groceries
halstuch
handschuhe
hart
headed
hindurch
hocker
hotdogs
hänge@@
hüpfen
ic@@
if
im@@
ines
inform@@
inlineskates
inspi@@
itä@@
kasten
kayaks
kettensäge
keys
kies
kitt@@
kna@@
knit
ktem
kunstwerke
lage
landing
langhaarige
last@@
laufbahn
lead
lebensmittelgeschäft
leckt
leotard
lernt
leucht@@
liert
lifted
lips
locken
lon@@
luft@@
läuferin
maler
man-@@
manche
markt@@
marktplatz
meeres
meeres@@
meeting
menschen@@
messy
mini@@
modell@@
monopoly
mop@@
motocross-@@
mul@@
musli@@
mülltonne
nature
nie@@
observes
off-@@
official
ohr
ol
olympischen
ones
oran@@
order
ou@@
oven
overweight
ozean
paddles
papiere
patro@@
pfen
pfer@@
pflanze
pflasterstraße
pink@@
pistole
places
plastiktüte
pop@@
praying
profi@@
promenade
pt@@
pult
rafting
rauch
reg@@
regal
retrie@@
ruhen
rö@@
sailing
samen
schienen
schlu@@
schne@@
schnur
schuss
schutz
schwarz@@
schwert
schä@@
screaming
seiten@@
similar
sks
sneakers
sno@@
soda
some@@
sowie
spazier@@
spei@@
spla@@
spoon
spotted
ssage
stance
stap@@
stehend
still
stimm@@
stomach
streich@@
streicht
strickmütze
studying
ständer
stühle
surfen
säulen
tail
tat@@
teen
telephone
tending
tha@@
ther
tie@@
tires
tropical
tten
tter
tur
tut
tv
tänzerin
türen
u-bahn-station
unbefestigte
unterwäsche
us@@
venue
verheiratetes
verti@@
viertel
vil@@
vorbereitet
wandt
wange
waschbecken
waterfront
waterway
welpe
wheelbarrow
wind
wohl
wra@@
wü@@
zes
zeug@@
-schild
accompani@@
ach
afri@@
ag@@
alleyway
amerikanischer
anhänger
ansieht
appar@@
applying
arbeitern
arcade
arch
are@@
artigen
atta@@
attending
aufgestellt
ausgestellt
auslage
aussehen
badeanzügen
badezimmer
bagpipes
ballet
bam@@
bamboo
baren
barfüßi@@
bea@@
been
begleitet
beisammen
bemalten
benen
betonwand
betrie@@
beverages
bewegungen
bikinis
bit
bite
biting
blankets
blocken
blockt
blur@@
boarder
boarding
boulder
bra
braun-weiße
breakdance
brenn@@
bricks
broch@@
bräun@@
burning
c-@@
cakes
chel@@
chicken
chinesi@@
cho@@
ck-@@
cken@@
ckens
clapping
cola
comm@@
complete
computern
cooks
coun@@
countryside
covers
cri@@
cti@@
cycling
deli@@
deren
dering
design
designs
dor@@
dorf
down@@
dress@@
drive
druck@@
dudelsack
dunklem
dust
dü@@
einfahrt
einhei@@
erter
excit@@
exercise
exhibit
fair@@
far
fashioned
feath@@
feder@@
fischer@@
fontäne
forehead
freundin
fru@@
gal@@
games
gegenständen
gehör@@
gemein@@
gende
genommen
gent@@
gericht
gerin
geschla@@
gesichtern
gesp@@
gestreifter
geöffneten
gipfel
give
gle@@
glänzenden
golfball
graph@@
grö@@
gymnastics
gäste
halt
halt@@
ham
handing
heading
heißluftballon
hellhäutige
hemd@@
hen@@
herbst@@
herumstehen
herz@@
high@@
highway
hinderni@@
hn
hnen
hula-hoop
hunder@@
hundes
hä@@
ies
inspects
interess@@
iron
ities
iting
jackett
jenga
jet
juice
kasse
ke-@@
keln
klar@@
klaren
knall@@
knees
knife
knöpfen
komp@@
kreide
kreuz
kti@@
köpfe
kör@@
kümmert
lecture
leitung
lers
ley
lie
lila@@
ling@@
lk@@
load
long-sleeve
län@@
maschendrahtzaun
mcdonald
merchandise
mikrof@@
mil@@
mischt
mix@@
mixer
mmen
mming
mmt
modi@@
motorrad@@
mou@@
mountainbiker
movie
mä@@
männliches
nebel
nee@@
neh@@
newly
newspapers
nieder
noten@@
obst@@
offi@@
olo@@
olympi@@
olympics
ong
oranger
ord@@
ously
ow@@
ox@@
paare
padd@@
paperwork
parachut@@
parcours
passt
pat@@
patterned
person@@
pfe
pfo@@
pigtails
pillows
placing
play@@
popcorn
presenting
professor
präsentation
prüft
pudel
puppies
quad
radio
range
recei@@
reihen
rennfahrer
repairing
repor@@
restaurant@@
rickshaw
ringer
rollerblading
rollerskates
rosa-@@
rot-weiß-@@
rutschen
saiten@@
sam
sandigen
satz@@
schafe
schale
schat@@
schlaf@@
schlafen@@
schlag@@
schlei@@
schleife
schmi@@
schneeanzug
schnell@@
schnitt
schnitzt
schnüffelt
schwebt
schwimmweste
schü@@
schüsseln
scooters
scouts
scre@@
seem
selbst
sele@@
serves
shadows
shirted
shoppers
show@@
sive
skaters
sla@@
snowsuit
sonnenschirm
spanish
spielerisch
spit@@
sprungbrett
ssel
stahl@@
stall
stand@@
stare
statt@@
steu@@
stie@@
stin
stops
strauß
stroh@@
stän@@
stößt
suitcase
sung
sweeps
sü@@
ta
tablett
tackling
tape
tarnkleidung
taucher@@
teal
teile
tem@@
termin@@
terrier
thumbs
tiert
tired
tische
tossing
touches
tour
traditionellen
train@@
trainingsanzug
trauri@@
tray
treppenstufen
trocken@@
tt
tted
turnier
tutu
tätowierung
tätowierungen
tü@@
türki@@
ultimate
umpire
uren
vergnügungspark
verschneite
videospiel
viol@@
visible
visiting
vorstellung
waffel
wake@@
walmart
wares
warn@@
wassers
watet
wegs
weihna@@
weil
weit@@
werbe@@
wir
wires
won@@
wrap
zel@@
zement
zeug
zeuge
zombi@@
zurück@@
zügen
öl@@
7
abgeworfen
acti@@
adjusting
adv@@
african-american
afroamerikanischer
aller
alling
ampel
ander@@
arme@@
arri@@
artwork
asians
assem@@
ations
auge
ausdruck
babys
backdrop
befin@@
beige@@
bekleidet
bekleidete
bekleideter
bend
besteht
bir@@
black-haired
blood
blätter@@
bmx-fahrer
bordstein
bouquet
braunhaariger
brettspiel
brü@@
budd@@
bulldozer
cage
camping
carefully
cel@@
celebration
chatting
cheek
chess
chteten
ckets
closely
constru@@
couples
creek
crossed
crouched
ctor
cy
darbietung
ddle
ddy
department
descent
diner
dir@@
dit@@
diti@@
dives
dot
drawn
drib@@
dritte
drän@@
drängt
dung
dunkelten
dusty
eben@@
ee
eglasses
eimern
eini@@
einkaufstasche
eiscreme
elev@@
eller
entgegen
entgegen@@
enthusia@@
erende
erklimmen
ertem
ethni@@
explo@@
fashion
fecht@@
feu@@
feuerwehrauto
film
finished
firefighter
fischt
flauschiger
floats
focused
fore@@
formt
fort
frauen@@
freizeit@@
freude
freun@@
fron@@
früh@@
fußballdress
fußgängern
füllen
gathers
gebü@@
gefle@@
geländewagen
gepunkteten
gerichtet
gescho@@
gesehen
gesen@@
gesprungen
gesäum@@
gew@@
grill@@
grills
grün@@
gurt
hafen
haired
hallen@@
hamburger
heit
herren
hispani@@
hit@@
hle
hohe
hoher
hol
holzbank
hot@@
hum@@
hur@@
händchen
ig
ige
ils
indem
injured
innenstadt
involved
ipod
iti@@
japan
japan@@
japanischen
jean@@
jeder
jugendlichen
jun@@
jüngerer
kal@@
kayaking
kenn@@
kerle
kings
kit@@
kittel
klat@@
kleineren
kleinkinder
kol@@
kollegen
kop@@
kopfschmuck
kostüme
kran
kun@@
ky
kühl@@
laborkittel
langärmeligen
larger
laundromat
leaf
leap
learning
leben@@
lebensmitteln
leuchtenden
lieferwagen
liege@@
ließt
lifts
lighted
link
location
logs
loo@@
loom
lou@@
lum@@
löschen
magazines
maneu@@
marathon@@
mark
med
meet
miami
mid-@@
militäri@@
miniat@@
misch@@
mittelalter@@
mobil@@
mop
morning
motorcyclists
motorized
mower
mt
mug
mädchen@@
männer@@
männlichen
möglicherweise
nachbar@@
nail
namen
o-@@
oberen
obststand
ols
oned
opens
orientalische
papp@@
parachute
passersby
patch
pfanne
pferdeschwanz
pflan@@
picks
pinkfarbener
placed
planting
playfully
plüsch@@
politi@@
pon@@
ponch@@
ponytail
poor
portrait
posed
positi@@
power
practices
prin@@
printed
präsentiert
punkt
puppen
pä@@
rally
rapids
rauch@@
recht
rechte
record
reichen
reit@@
rice
richtungen
rie@@
rodeo-@@
rollen
rollerskating
roun@@
row@@
rückwärts
s.
sack@@
sammeln
scape
schachtel
schar@@
schem
schild@@
schlagmann
schlauchboot
schneeh@@
schnei@@
schot@@
schwester
schütteln
seattle
segel@@
seltsamen
sem@@
serviert
shoreline
sicherheits@@
sil@@
silberfarbenen
sims
skat@@
skateboard-@@
skyline
sl@@
snacks
snowshoes
sparring
speak
spielplatz@@
sprecher
spärlich
ssel@@
sser
st.
stal@@
state
stati@@
steg
stens
stiefel
stle
strange
straßenverkäufer
strecken
streichen
sty
stür@@
stützt
sunlight
supplies
surf@@
surgery
suspenders
swimmingpool
swimsuits
säge
säugling
säule
süßigkeiten
teens
teilnehmer
telefon@@
thers
ticket
tights
tiny
toilet@@
tomaten
torch
touch
tran@@
transportiert
traveling
treppen@@
tricycle
trip
trolley
tuni@@
turnschuhen
turquoise
tzt
töpfer@@
türöffnung
uchen
underwear
unk
unterricht
unterschiedlichen
urein@@
verkaufsstand
verkehrs@@
verla@@
verteilt
verwenden
viel@@
vol@@
vorderseite
vorführung
wakeboard
ware
wasch@@
washer
wasserrutsche
watched
ways
weap@@
weather
weihnachtsmann
weihnachtsmann@@
weiter
wered
wette
wning
wohner
workout
wunderschöne
wä@@
yarn
yel@@
zahl
zebra@@
zelt@@
zoo
zugs
zunehmen
ähnlichen
örtlichen
überall
übung
übungen
00@@
abgebildet
abgestellt
activity
afrikanischen
amidst
amüsiert
ands
aneinander
ang
angeboten
angebracht
angemal@@
anzeige
apart
approaches
arabi@@
arran@@
asi@@
asia
asphalt
athle@@
au
aufgeregt
aufgereiht
ausflug
ausgestreckt
automaten
axt
babies
bag@@
baseballschläger
batman
bauwerk
befesti@@
beladen
beleu@@
belts
bergsteiger
bers
besitz
bestellen
bevor
bikini-@@
bildern
bildes
billard
bindet
blasen@@
boden@@
bootes
bor
branches
braut@@
break@@
brin@@
brother
brüne@@
buil@@
burg
burgunder@@
bö@@
camera@@
canvas
cast
casually
celebrate
chalkboard
challen@@
chee@@
cheese
chemi@@
chips
chopping
cial
classic
clim@@
clu@@
coa@@
coca-@@
collared
colum@@
condu@@
contraption
cop
creating
ctions
cul@@
cute
cyc@@
decorative
demonstra@@
desc@@
digital
displaying
displays
dle
dlichen
done
dor
dosen
dreirad
driveway
du
dut@@
dämmerung
earphones
ebenfalls
ehen
eil
einfa@@
eing
eingeschlafen
eisenbahn@@
embracing
emer@@
ends
engel
entfernung
entu@@
erdhügel
erle@@
erreichen
erzeugnisse
eten
fabrik
facility
farbiger
fasst
feat@@
fertigen
ffel
fier
finishing
fische
fit@@
fitness@@
flei@@
fliegenden
floo@@
foot@@
freizeitpark
fremden
friedens@@
frisbee-scheibe
friseur
frozen
fröhlich
fte
fur
furry
fußballmannschaft
fächer
gallery
gaze
gazes
gefolgt
gegen@@
gehenden
geschnitten
geschäf@@
gie
gitarren
gitarristen
goat
gradu@@
grand
gray-haired
green@@
grube
größeren
grü@@
halloween
halskette
handrail
hat@@
hawai@@
headdress
hear@@
helicopter
herkunft
herrn
hiding
hike
hills
hochzu@@
holzboden
hr
hren
hren@@
hüb@@
hügel@@
hüpf@@
i-@@
icy
identi@@
ien
ilen
in-@@
incline
iner
ining
inline
interagi@@
intere@@
involving
ität
jahr@@
juggles
kabine
kampfsport@@
kari@@
kartons
kastanien@@
kauert
kiosk
klappstuhl
kne@@
ko
kom@@
konferenz
kraft
krankenhaus
kratzt
kräfte
krü@@
ktion@@
kurze
kurzem
käfig
kö@@
körper@@
kür@@
la
labra@@
lachende
lagerfeuer
landstraße
late
laun@@
leaf@@
leger
lens
lerin
less
lets
letz@@
lighting
lings
lining
lled
llen
located
loh@@
luftballon
lung
lächelnden
läufern
lü@@
ma
mach@@
maintenance
make@@
march
mark@@
marker
mast
mate
maul@@
mcdonalds
mega@@
meisten
mem@@
menschenansammlung
mexican
mm
motorhaube
musikgruppe
mülleimer
namens
namensschild
nasser
natur@@
nel
nen@@
neten
news
niedrigen
nor@@
notebook
numbers
nur@@
nurses
nächt@@
obdachloser
od
on-@@
op-@@
open-@@
orche@@
oren
pads
partie
peeking
pel
perlen
pers
picknick@@
pin
pins
platz@@
played
ple
plo@@
pool@@
potato
pots
prie@@
process
products
progra@@
proje@@
prote@@
put@@
qui@@
quickly
racers
regenbogen@@
regnerischen
reini@@
renaiss@@
reparat@@
rettung@@
roadside
robo@@
rollern
roo@@
rooftop
ruhigem
rut@@
rückseite
rücksitz
saris
scaffold
scar@@
scending
schaulusti@@
schie@@
schlan@@
schlendert
schlü@@
schminkt
schna@@
schneeschuhen
schneit
schutzausrüstung
schutzkleidung
schwarzhaarige
schwingen
schür@@
seagul@@
second
seni@@
series
serve
shape
shar@@
shing
shor@@
sicherheit@@
side@@
sideways
sie@@
sieg
single
sko@@
skol@@
sn@@
soll
speaker
spect@@
sper@@
spider@@
spiegel@@
spiele
spongebo@@
sprayed
ssaal
ssive
start@@
staubigen
stellten
stelzen
stepping
sterten
stiften
stilts
stolz
ston@@
storm
strahl@@
stroke
stump
stur@@
surfs
swagen
symbol
tackelt
tails
talent
tation
tend
teppi@@
the@@
thin@@
those
thumb
toddlers
tournament
trans@@
transportation
trashcan
tribal
trifft
trink@@
tug@@
ty@@
ungewöhnlichen
unordentlichen
unteren
unterrichtet
upward
val
valley
verbun@@
vergnügt
verk@@
verkauf@@
verletz@@
verzierten
violett
vortrag
walked
wanderweg
wanne
waren@@
washes
webstuhl
wehren
wet@@
whom
wilden
windhund
wns
wolke
wolken
work@@
workshop
wäl@@
ya@@
zauns
zeich@@
zement@@
zens
ziegelsteinen
ziegelwand
ziellinie
zigar@@
zo@@
zucker@@
zylinder
zz@@
ßer
ält
ärmello@@
ät
öffent@@
öffentlichkeit
übergewichtiger
-hemd
able
absperrung
acce@@
adjusts
afternoon
ak@@
akten@@
akusti@@
ales
alko@@
almost
alt
amp@@
angezogener
anhaben
apfel
appro@@
aprons
asiat
astro@@
aters
ationen
atm
attractive
attraktive
aufgaben
ausgestre@@
ausgezogen
ausländi@@
aussehendes
aussicht
autobahn
außenbereich
backflip
ballon@@
barbe@@
barren
baseball-@@
bask@@
basket@@
bast@@
bath@@
bathtub
bauernmarkt
beamte
bedienen
bedruckten
befahrenen
begeisterung
begins
beleuchtet
belongings
bemal@@
bends
beret
besitz@@
besucht
betrachter
betreten
bewaldeten
bicycling
bikin@@
binden
blue-@@
bmx-@@
bohrmaschine
booths
bouncing
bowling@@
brass
breakdancing
bruder
brunn@@
brushes
bten
built
bullen@@
bush@@
busine@@
butterfly
bzw.
cab
camp
camp@@
canadian
cann@@
capped
casino
cellphones
cer@@
checkers
chers
chewing
chie@@
chil@@
chinesische
chirur@@
chocolate
chopsticks
chte@@
cigar
circular
ckel@@
cleaner
cloud
clouds
cockpit
cola-@@
color@@
concentra@@
containing
cover
cover@@
crates
crowds
curly-haired
dahinter
dal@@
daran
darin
decora@@
decorations
deli
denk@@
dessert
dex
diert
diesen
discu@@
displayed
dive
dragging
draw
dribbelt
dritten
dritter
ducks
dumpster
dunk
dunking
egg
einiger
eink@@
einkaufen
einkaufstüten
einrichtung
eisk@@
elektrischen
elementary
emp@@
employees
entfernen
enth@@
ep@@
erhobenen
erhö@@
erie
ering
erleuchteten
ese
essensstand
etwa
euro@@
ev@@
even
exerci@@
expl@@
extre@@
fahren@@
fahrenden
familien@@
farmers
fassade
fau@@
featuring
feier@@
felsbrocken
felsk@@
felsvorsprung
fenstern
fernseher
fertig
festgebunden
festi@@
ffe
fischernetz
fishes
flannel
flipflops
flugzeugs
fluss@@
flusses
flussufer
flügel
foc@@
foliage
foods
formeller
formen
free@@
french
friseur@@
fur@@
fußgänger@@
förm@@
führer
füll@@
gardening
gas@@
gazing
geburtstag@@
gefallen
gegnerische
gehol@@
gelangen
gelegenen
gent
geo@@
gepflasterte
gepfle@@
gepäck@@
geschn@@
geschnittenen
geschwindigkeit
gesetz@@
gespannt
gestellt
gesturing
getroffen
geträn@@
geöffne@@
geöffnet
gged
girl@@
gitarren@@
gkeiten
glatze
gleis
glä@@
golden@@
grab
grabbing
grabs
graffiti@@
grasbewachsen@@
greyho@@
gru@@
gruppen@@
gur@@
hab@@
half@@
handed
handle
haut
hea@@
heavily
heim@@
heller
henden
heraus@@
herbst
heruntergekommenen
highchair
hind
hinterbeinen
hm@@
hohem
hohes
holzzaun
hop@@
horizon
hudd@@
hübsche
hübschen
ility
illumin@@
images
inner@@
inning
interesting
irokesenschnitt
ites
jeweils
jogger
jogs
jong@@
joy
jumped
jumper
jung@@
kapuzenpullover
karohemd
kartoff@@
kauf@@
ki
kimonos
kleide@@
kly
kneipe
knie
known
knö@@
kommen@@
kontrolle
kragen
kricket
krö@@
ktion
kul@@
kulisse
kund@@
kunst
kämpft
lagen
lampen
langärm@@
las
last
laternen
league
lehr@@
lernen
letter@@
liegende
life@@
lippen
live@@
lokal
losen
lten
lädt
mas
masken
meer@@
meere@@
mei@@
mel
mente
menu
meter
mexikani@@
mmen@@
mmer
moder@@
monkey
moo@@
motion
musikinstrumente
mut@@
muzzle
muzzled
mäht
möbel@@
mön@@
münz@@
nacht@@
nass
nat@@
nation@@
nerin
nes
obser@@
odles
of@@
offen@@
olympic
ope
operates
opy
orangefarbenes
orientalisch
oring
osten
pad
painter
pale
parallel
passagiere
passiert
pathway
patienten
pattern
peace-zeichen
pee@@
peer
pencil
perücke
pet
pf
pfahl
pfeil
pferder@@
photograph@@
piercing
platten
pok@@
pos@@
pow@@
ppel@@
ppi@@
prei@@
press@@
probieren
projek@@
protesters
protestiert
pub
pullunder
pumpkin
radfahr@@
radrennfahrer
rai@@
raincoat
rasenfläche
rasenmäher
rauchen
rav@@
re
really
recording
reflection
regenmantel
reklametafel
relea@@
remo@@
rett@@
rifle
rikscha
riot
river@@
road@@
rudern
ry-@@
röhre
sad
sai@@
san
sauber
sawing
saxofon
say
scenic
scent
schach
schachteln
schafts@@
schlammigen
schneebedeckte
schneebedecktes
schwarz-weiße
schwarz-weißem
schwestern
schwimmen@@
schürzen
schützen
schützt
score
section
segelboot
seichten
service
shiel@@
shiny
shoo@@
short-haired
sicherheitsweste
skateboar@@
sking
sle@@
sledding
sniffing
snowboards
soap
sorting
sou@@
spat@@
spaziert
spee@@
speise@@
spie@@
spielerinnen
spielers
spir@@
spot
spritz@@
späht
sse@@
ssions
stacked
stant
stativ
statu@@
stecken
steile
steintreppe
stil@@
stirn@@
stoop
strands
strapped
straßenarbeiter
straßenmusiker
straßenseite
strei@@
strolls
stromschnellen
stuhl@@
styli@@
stäbchen
suit@@
sure
swor@@
system
sz@@
tage
tags
tagsüber
tanzfläche
task
teilnehmen
teilt
temp@@
tends
than
thing
tiges
tight
tiled
tips
toi@@
tol@@
trau@@
treat
tren@@
trench
treppenhaus
tripod
tromm@@
träger
tun
ture
two-@@
types
tätowierte
ual
umringt
unglück@@
uniformierte
uniformierter
unique
university
upset
us-@@
utsche
vergnügen
violet@@
voll@@
vorder@@
vorderen
vorführt
vö@@
völlig
w-@@
wahr@@
wait@@
warmen
wasserfläche
wasserski
weiteren
welcome
well-@@
wenn
wetter
wheeler
who@@
wig
wil@@
win
wr@@
writes
wär@@
wärmen
würde
zauber@@
zei@@
zeichnen
zeitschriften
ziegel
zimmer@@
zit@@
zten
ähnlich
ärz@@
öffnen
überdachten
überprüfen
ügel
-colored
20@@
abandoned
absol@@
accident
acrobatic
adverti@@
afrikaner
akrobati@@
aktiv@@
altmodi@@
altmodischen
amerikanisches
ammer
amount
angehalten
angels
angezogene
angle
ansehen
ant@@
anten
ants
anweisungen
anzahl
arrangement
artists
ately
aten
ath@@
aufblasbare
aufgereg@@
aufzug
ausgebreite@@
außer@@
b-@@
backsteinmauer
badminton
bagger
ballerin@@
bands
banners
barefooted
barre@@
bartender
base@@
baseballfeld
baseman
basketballfeld
bauarbeiter@@
beachvolleyball
beads
bear@@
because
bedroom
begeistert
beißen
benden
berry
bert
bestehend
beteil@@
betet
betonmauer
blasinstru@@
blaskapelle
blau-grünen
bled
blö@@
blöcken
boar@@
bockenden
body@@
bodysuit
bongo
boogie
bord
boston
brautjung@@
breiten
brennende
bridesmaids
british
broad
brot@@
buchstaben
buck@@
bul@@
bundle
bunge@@
buried
bush
bän@@
bürste
bürstet
camels
campfire
camping@@
canal
candle
canoes
canyon
cari@@
carrier
cases
cen@@
champa@@
cheerlea@@
cheerleading
cherry
chin
chin@@
chten@@
cigar@@
circus
citi@@
ckchen
cktem
clar@@
cluttered
college-@@
columns
comi@@
commercial
communi@@
companion
completed
conductor
congreg@@
conne@@
cons@@
cowgirl
crashing
crayons
create
cries
crow@@
darkened
darüber
daytime
deci@@
deer
dekor@@
dekoriert
demonstranten
denkmal
denkt
denti@@
deser@@
destination
dicken
dieselbe
dinosau@@
dinosauri@@
directing
disk@@
dly
doesn
downhill
dramati@@
draped
draws
dreirä@@
dul@@
dunkelheit
dä@@
earth
easel
edly
eds
eho@@
eier
eig@@
eine@@
eingewickelt
einkäufer
eisen@@
eishockey
eishockey@@
elabo@@
eled
elektri@@
elektro@@
elektronischen
eli@@
eln@@
elnden
employee
enga@@
envi@@
ereignis
erhält
erklimmt
esstisch
establishment
ett@@
eu@@
europa
europe
european
every@@
facial
fackel
fahrradhelm
fahrzeugen
fasz@@
fat
faulenzen
fedora
fels
fernsehen
fertig@@
ff
ffe@@
ffer@@
fields
figures
filming
finden
fish@@
fit
fliege
flower@@
flug
foam
followed
fon@@
football-spiel
footballspiel
forested
forscher
fotogra@@
fountains
frem@@
frischem
fting
fts
fußboden
fußgängerübergang
gan
gangs
gat@@
gebauten
gebir@@
gebäude@@
gefahren
geflochten@@
gefroren@@
gefär@@
gegenüber@@
gehstock
gehüllt
geish@@
gelb-schwarzen
geld@@
geldautomaten
gemü@@
gert
geräte
geschmückt
geschoben
geschrie@@
gesellschaft
gespielt
gestreifte
gesture
getreide
gewinnen
gieren
gießen
gin@@
gitarre@@
gitter
gleichgewicht
glichen
gläser
gne
gold-@@
gown
grasp@@
graues
gress
grünfläche
gymnastik@@
gän@@
gürteln
ha
had
haltend
hammering
hammock
handwerker
handys
hardwood
harmonica
harmonika
harve@@
hawaiian
headset
heiß@@
hellgrünen
hellhäuti@@
heraushängender
hero
hinauf@@
hinder@@
hochha@@
hochstuhl
hock@@
hockeyspiel
holi@@
holzbrett
holzkonstruktion
homemade
horizont
hosenträgern
hubschrauber
huhn
human
husky
hydrant
hydranten
hängematte
hüfte
ier@@
ieren
ierten
iling
ilt
imbiss@@
imp@@
inder
india
indian@@
indiani@@
indien
industri@@
industrial
information
ing-@@
ir
irgendeinem
island
itali@@
jack
jahrmarkt@@
jogging@@
judges
kahl@@
kajakfahrer
kajaks
kamm
kampfspor@@
kampfsportler
kanadi@@
kaner
kanerin
kaput@@
kapuzen@@
karat@@
karierter
kaya@@
kee@@
keeper
kegeln
kerze
key@@
kinds
kisses
kitchena@@
klammert
knee-@@
kommuni@@
kompletter
kontrol@@
konzer@@
kopfbedeckungen
kopfstein@@
kr@@
kragen@@
kreuzten
krä@@
kämpfer
kürbis
küsten@@
labeled
laboratory
ladefläche
ladung
lama
lands
lanterns
lay@@
leb@@
lecker@@
legerer
lem@@
leuchten@@
lic
lieren
linke
lion
lippe
lippen@@
lively
lly@@
loaded
looked
lor
lun@@
lusti@@
ly-@@
ma-@@
mag@@
main
mal
mani@@
marathonläufer
mari@@
marki@@
masks
masten
matra@@
medium
medizini@@
meißelt
mess
metallstange
mick@@
midst
mige
militäruni@@
minivan
mitspieler
mitt@@
mix
monk
much
murky
muscular
muskulöser
musta@@
möchte
na
nackte
nahen
nails
napping
natur
navi@@
navigates
notes
nummern
nun
nungen
obama
objekti@@
och@@
oklaho@@
oldti@@
onne
ore@@
orientalischer
ozeans
package
packed
packing
pain
papa
passen@@
patrio@@
pay
ped@@
pedal
peers
pfi@@
photographers
pinsel
pizzeria
plain
plasti@@
pocket
polohemd
pop
porträt
pours
pp
ppy
probiert
product
projector
protect
protest@@
protesti@@
prun@@
präch@@
prü@@
punch
purses
putzer
puzzle
rate
redhead
refle@@
reifen@@
religious
religiö@@
rest@@
return
ridor
rockband
rodeo@@
rollers
rollerskat@@
rosaroten
rostigen
rot-schwarzen
rothaariger
rub@@
ruder
rugbyspieler
rugs
ruhig
rührt
saft
sail
sailboat
sandburg
sandwi@@
sari
saugt
saxoph@@
schaf
schals
scheln
schieß@@
schlendern
schloss
schlucht
schmalen
schmin@@
schnappt
schnit@@
school-@@
schran@@
schrau@@
schreib@@
schritt
schutt
schutzwe@@
schwarm
schwenken
schwere
schöner
scrubs
sear@@
seifenblase
selbst@@
servieren
sfarbenen
shadow
shaggy
shelf
shing@@
shout@@
sicherheitswesten
signing
silberne
sine
sk
skate@@
skatet
ske@@
skies
skills
skinny
sky@@
slam
smartphone
soeben
soft@@
sombrer@@
somewhere
sommertag
sonnenlicht
speeding
spiegelbild
spielsachen
spielzeugauto
spins
spitzen
splashed
sporthalle
spotlight
spra@@
sprays
spring@@
springer
spru@@
squeezing
ss-@@
sseln
stabhoch@@
stadtpark
staff
stag
stamm@@
starbucks
staub
staun@@
steinbank
stellte
stern@@
stock@@
stor@@
straßenfest
straßenszene
stream@@
streifen@@
stretches
striert
stringed
strolling
strumpfhose
stry
strümpfen
stuck
stuff
stum@@
stumpf
stämmen
stür
stütz@@
surgical
suv
sweatshirts
synchronized
säcke
säcken
sägt
table@@
tackled
tage@@
tank@@
taube
taxis
tching
teammates
teddy@@
teenagern
tele@@
telefonieren
telefonzelle
tenni@@
tennisplatz
tery
text
theater@@
tic
tischer
too
toothbrush
touristen@@
trains
transit
travel
trockenen
trocknet
träger@@
tug-of-war
tum@@
tuxe@@
tying
typi@@
uble
ugh
umgebenen
una
underground
une
unge@@
unhappy
unterhemd
unusual
ured
usly
utensi@@
va
variety
vege@@
vending
verschieden
verschränkten
verschwo@@
verse
versuch
verw@@
verwirr@@
victory
vintage
volleyballspieler
vollstän@@
vorsichtig
vögeln
wach@@
wache
wachmann
wahrscheinlich
waist
waiter
walk@@
warehouse
wartungs@@
waschmaschine
wash
washington
wasserbecken
wasserski@@
wassersprenger
waterskiing
wegen
weise
weiterer
werfer@@
werkzeugen
wettei@@
wheel@@
wheeled
when
wildnis
windhunde
wippe
wischen
wol@@
wollmütze
wän@@
yama@@
zahnbürste
zeh@@
zelten
zeremonie
zerinnen
zhut
zie@@
ziegelbau
ziegelgebäude
zieh@@
zielen
zielt
zuhause
zuhört
zzy
zäun@@
züge
zündet
ßer@@
12
absperr@@
ach@@
acting
activ@@
ade
alls
amm@@
ap@@
ards
arrow
asp@@
ass@@
attle
aufmerk@@
aufnah@@
ausgeb@@
badeho@@
bati@@
bauern@@
befahren@@
begin@@
beguta@@
bew@@
blä@@
boo@@
bord@@
cess
check@@
ckelt
cle
clut@@
competiti@@
congre@@
cou@@
cy@@
cycles
day@@
des@@
die@@
digit@@
drah@@
drü@@
egt
ehnt
einkaufsta@@
electri@@
eleph@@
embra@@
ena@@
ently
exhi@@
experi@@
fack@@
farbi@@
faulen@@
fernseh@@
fft
flauschi@@
flü@@
fter
ga
gage
geburtsta@@
gehöri@@
gela@@
gelän@@
geschir@@
geschlo@@
geschäft@@
gewe@@
ght@@
glatz@@
gleich@@
grei@@
gte
gä@@
hallo@@
ham@@
hamm@@
happ@@
hause
herunterge@@
hosen@@
hou@@
händ@@
ian
ight
inen
inlin@@
inline@@
inspe@@
irs
ise
itten
iz@@
jo
jün@@
kehren
kellner
khakifarbener
kite@@
klappstühlen
kleid@@
klein
kolle@@
konferen@@
kostümierte
krabbelt
kran@@
krankenhaus@@
kte
kunde
kunft
kunstgalerie
kümmern
lab@@
lach@@
lack@@
ladens
laid
langes
laterne
laufband
laut@@
lebensmittelmarkt
legged
legos
leichtath@@
leitet
leopar@@
leopard
letscher
level
lich@@
lichtern
licking
lier@@
ligh@@
lilafarbener
lim@@
linge
lli@@
lling
loa@@
lush
ly@@
maid
maj@@
mannequin
mannschaft@@
manövri@@
marble
marked
mascara
mascot
maskottchen
may
maybe
meadow
measuring
medieval
mediz@@
mehr
mehrfarbigen
mensch@@
metri@@
migen
mikrosk@@
militärangehöri@@
mini-@@
mitgliedern
mitt
mmel
mo
model@@
modell
modernen
monitors
motiv
motocrossfahrer
mountainous
mounted
mouths
mowing
musikinstrument
musikinstrumenten
muss
möwen
müllcontainer
nachmittag
nachricht
nackter
nadel@@
nagel@@
nah@@
named
nassem
necklaces
neuen
newlywed
nin@@
nine
nis
nn@@
nnen
notiz@@
nude
nä@@
nägel
objekte
odle
oil
olli@@
om
om@@
onspieler
open@@
ordering
ordnung
orned
ort@@
ot
our
outfielder
paci@@
packen
pal@@
palme
pans
parent
parken
parks
passagieren
past@@
pati@@
patrons
peaks
pelz@@
personen@@
pfadfin@@
pfadfinder
pfeife
pfeln
ph
picket
pict@@
piercings
pigeon
pink-@@
pirate
plakat@@
plea@@
plüschtier
podest
pointed
policemen
poodle
pops
power@@
ppen@@
prepared
presents
prints
pro
produkt
produkten
profi-@@
propan@@
pturen
pullovern
punching
punk
punk@@
puppet
purchase
putz@@
pyjam@@
pyrami@@
pyramid
quadra@@
quet
quiet
radfahren
rafts
rag
railings
rails
raining
randstein
rasier@@
raz@@
reception
red-@@
reflektierenden
regelt
regnet
reo@@
resort
rich@@
riesen@@
riesi@@
ring@@
ringkampf
rise
rodeoreiter
rohre
rolle
rollerbla@@
rolls
ronment
ros@@
rosa@@
rosen
rot-weißes
ruck@@
ruderboot
rug@@
rugby@@
rush
rustic
räumen
sandhügel
sar@@
satt@@
sausa@@
sca@@
schanze
schaum@@
schenkt
scher@@
schil@@
schlafend
schlafendes
schlamm@@
schleift
schließ@@
schließen
schlittschuhen
schnau@@
schnür@@
scho@@
schokoladen@@
schon@@
schr@@
schun@@
schwebebalken
schweiß@@
schwertern
schwieri@@
schär@@
schönes
schülerin
schülern
schützern
scientist
scopes
sculptures
seafood
seating
segelt
seichtem
seifen@@
seit@@
seligkeiten
seltsam@@
sem
sements
semi-@@
senior
separate
sfeld
sh-@@
shake
shalle
shawl
shift
shoe@@
shower
sicher@@
sidelines
silhouetted
skateboarders
skater@@
skel@@
skleid
sky-@@
skydiving
slacks
sleep
sleeves
smit@@
snap
snor@@
social
sociali@@
sold
solo
sonn@@
soon@@
sooners
sortiert
sparkl@@
speeds
speer
spen@@
spielenden
spinn@@
splatz
sprit@@
squats
ssene
stadtszene
staffelei
stamm
stammeskleidung
stapelt
starring
stars
startlinie
statur
staubsauger
steaks
stehendes
stel@@
stem
steuert
stofftier
stores
storte
straßenrennen
streut
striking
strings
stripe
stro
strom
strugg@@
stunde
stunts
sturm
städ@@
stücken
stürzten
sunbathing
superman
supermarket
supermarkt
supp@@
support
surfers
swan
sy
säubert
süßig@@
tail@@
tains
tam@@
tambour@@
tankstelle
tarp
tauziehen
te-@@
technik
tellern
temple
teria
thick
thor@@
though
ths
tinten@@
tippt
tisches
topless
tracksuit
traditionelle
trak@@
travels
treadmill
tree-@@
tress
tro
trophy
tropischen
trottet
trotting
trüben
tton
tubes
turkey
twister
typing
tän@@
tänzern
türkisen
u-bahnstation
ub@@
uch
ukulele
ume
umten
umzäunten
unbekann@@
unicef
uns
unt
untergrund
upwards
uro
usband
used
uth
vacuum
vacuuming
vau@@
verdi@@
vering
versteckt
verteidiger
veter@@
vibrant
videokamera
videota@@
violetter
visor
vogel@@
vogelperspektive
volkswagen
volle
volleyballspiel
volunte@@
voran
vorbeil@@
vro@@
wachsen@@
waff@@
waffeln
wanderung
wandmaler@@
warming
warnweste
wart
wassermelonen
wasserstraße
watermelons
waterski@@
wea@@
weder
ween-@@
weiblichen
weigh@@
weiß-schwarzer
were
wieder
wilderness
willi@@
winterjacke
wintertag
wohnung
woodland
workman
wrestlers
written
wäh@@
wählt
wärtssal@@
wäsche@@
wüsten@@
xe
xylophon
xylophone
year
ysi@@
zeitungen
zentrum
ziege
zigarre
zigen
zubereiten
zuhör@@
zun@@
zurecht
zuschauer@@
zutaten
zweite
äng@@
ärm@@
übers@@
afroameri@@
akkorde@@
alter@@
ame
ansammlung
any
appe@@
ath
außen
balk@@
bathro@@
bedi@@
bedru@@
bekann@@
bes
beschä@@
bm@@
botto@@
brau@@
brä@@
bst
burger
cade
celebra@@
cer
ceremon@@
cir@@
cl@@
compet@@
complet@@
contain@@
countr@@
cours
cray@@
cular
demon@@
dges
drag@@
dunkl@@
dy@@
ef@@
ehr@@
eit@@
elektroni@@
eng@@
ep
erinnen
erleu@@
ett
fabri@@
farben@@
fashi@@
ffy
flö@@
freil@@
freu@@
gebi@@
gebo@@
gebunden
gebung
gemä@@
gerü@@
geschnitt@@
ggles
ghts
git@@
gon
gos
größ@@
gymnasti@@
halsk@@
haw@@
heav@@
heira@@
heit@@
horse@@
häl@@
inclu@@
infla@@
ings@@
irgen@@
iten@@
itet
jump@@
kani@@
keiten
ket
key
kleideter
kopft@@
köpfi@@
liqu@@
luftball@@
ländi@@
mai@@
mask@@
mets
micro@@
mikro@@
mittl@@
mpe
near@@
nei@@
new@@
night@@
not@@
ong@@
orange@@
ore
orientali@@
partici@@
patri@@
pers@@
pickni@@
pipes
plak@@
poin@@
polizi@@
port
prä@@
q
rasen@@
recor@@
refer@@
reflektier@@
rekla@@
ribb@@
rick@@
rosaro@@
rothaari@@
rubs
sail@@
scal@@
schirm@@
schlie@@
schlo@@
schmu@@
schwanz
schütt@@
sci@@
scoo@@
scope
skop
smi@@
snowboar@@
soa@@
sold@@
sprun@@
ssion@@
staff@@
stam@@
stea@@
stik@@
stir@@
stretched
strom@@
stud@@
stun@@
stung
tab@@
tar@@
tech@@
teena@@
tetes
tons
trainings@@
tramp@@
trav@@
tut@@
tz
ula
ulptur
ungewöhn@@
ups
usi@@
vertei@@
visi@@
volk@@
watte
web@@
wehr@@
weibli@@
weight
well@@
wen
whe@@
wood@@
xt
zahl@@
zeu@@
zut@@
ßi@@
ängt
öff@@
öh@@
öpfen
-covered
/
aga@@
akti@@
ama@@
angebo@@
ators
auen
aufga@@
ba
balan@@
balanci@@
ballspieler
beoba@@
berei@@
beu@@
bewer@@
bewölk@@
blase
bogen@@
bohr@@
bot@@
briti@@
brow@@
buch@@
bung
butter@@
care@@
carri@@
cell@@
chain@@
cheer@@
chtern
chts@@
cit@@
consi@@
cow@@
cowbo@@
crou@@
ctive
custo@@
dess@@
dition@@
dudel@@
dur@@
ees
eg@@
eite
elf
ena
farbenem
fic
figh@@
fir@@
fisher@@
garden@@
gebil@@
gefä@@
gepunk@@
geschmü@@
gewi@@
gewin@@
gewä@@
gh
ghtly
gie@@
gn
grima@@
gum@@
haube
hne
hre
hula-ho@@
hy@@
ien@@
iler
imbi@@
inc@@
ired
iro@@
irokesen@@
ittel
jam@@
jeman@@
jewel@@
jogg@@
kell@@
ketten@@
kimon@@
klei@@
labor@@
lass@@
lean@@
leh@@
lob@@
lok@@
long@@
mates
mati@@
merk@@
met
middle-@@
mirro@@
mly
mod@@
monit@@
mpe@@
ness
neugeboren@@
nisse
note@@
obdachlo@@
obje@@
op
oppon@@
ored
org@@
oth@@
pedestri@@
peop@@
phones
porträ@@
radre@@
rads
rail@@
rain@@
ruder@@
ruhi@@
rum
rän@@
schach@@
schaften
schaufen@@
schir@@
schlam@@
schlauch@@
school@@
schub@@
schwe@@
schütz@@
sculp@@
selt@@
servi@@
shado@@
sporth@@
spr@@
stad@@
staubsau@@
stisch
store@@
stret@@
strick@@
strü@@
surroun@@
swim@@
synch@@
sän@@
säu@@
tattoo@@
tchen
tell@@
theat@@
thro@@
tlichen
tradition@@
trie@@
tropi@@
trun@@
twi@@
u-bahn@@
uft
ulti@@
under@@
universit@@
uring
ush
var@@
verheira@@
verteidi@@
vio@@
vision
wagen@@
wards
wassermel@@
watermel@@
zierten
ßen@@
äufer
übergewich@@
ür@@
%
,@@
@
adi@@
admi@@
afrikani@@
akro@@
anda
ange
angen
angezogen@@
anhän@@
anwei@@
ara@@
arren
ater
att@@
badmin@@
balcon@@
bandan@@
bbing
beach@@
begeister@@
bele@@
beleb@@
bere@@
blan@@
blon@@
boul@@
bucks
bulldo@@
cau@@
cause
chine@@
chop@@
chtung
circ@@
clean@@
comp@@
compe@@
contro@@
convers@@
cour@@
daugh@@
deten
dings
dio
drahtzaun
drit@@
drop
eignis
einsam@@
ek
electro@@
elefan@@
enjo@@
enthusi@@
entri@@
entrum
equip@@
erial
erungen
eting
famili@@
fei@@
fel
fiel@@
fig@@
flag@@
fontän@@
freund@@
frisbe@@
frisbee-@@
gam@@
ge-@@
geblüm@@
gebun@@
gepark@@
gesell@@
getr@@
gewän@@
gewöhn@@
grund
guit@@
gung@@
gymna@@
hawk
hobenen
horizon@@
hydr@@
hölzer@@
inst
ird
ire
is@@
jen@@
jug@@
jum@@
kaffe@@
kamer@@
kin
kis
klapp@@
knei@@
kostü@@
kreu@@
kreuz@@
lamp@@
langärmel@@
lap@@
lear@@
lege@@
leot@@
letter
llt
long-@@
magaz@@
marin@@
marsch@@
mbi@@
mea@@
ment@@
mers
mmern
mmert
mmerung
mobi@@
motori@@
mounta@@
muzz@@
nati@@
niedri@@
nier
nung
pain@@
parti@@
participat@@
passagi@@
peri@@
perü@@
pfa@@
pfei@@
pho@@
pier@@
portra@@
prepar@@
produ@@
prüfen
ption
quad@@
quar@@
read@@
religi@@
richter
ro
rout@@
saxof@@
schmet@@
schneebedeck@@
schnurr@@
schrift
schwin@@
sculpt@@
secur@@
self
sent@@
separ@@
shop@@
short-@@
sigen
simi@@
siting
sni@@
sof@@
som@@
spea@@
ssy
stair@@
stau@@
staub@@
steh@@
strüm@@
sur
sweste
swi@@
sy@@
sym@@
säug@@
tags@@
taining
tea@@
teenager@@
tei@@
teilneh@@
teri@@
terri@@
testelle
tig@@
tou@@
touri@@
transport@@
trin@@
trompe@@
trä@@
tures
ump@@
unbefesti@@
unters@@
urr@@
vin@@
vy
walmar@@
wart@@
wassers@@
wettbewer@@
woo@@
worfen
x-@@
ym@@
zenden
zur@@
zw@@
zü@@
ärmel@@
öffnung
ü
übun@@
ünst@@
-skinned
abo@@
acro@@
adul@@
alie
anie
anst@@
aro@@
arr@@
arring
ata
aufger@@
backpa@@
beauti@@
beisam@@
beschäf@@
blüm@@
bock@@
bracht
bran@@
brocken
by@@
cand@@
cano@@
cation
chens
ciali@@
cket
cobb@@
cock@@
costum@@
cran@@
cue
cycle
disc@@
don
door@@
dunkelhäuti@@
dün@@
eben
eless
ens@@
entfern@@
entlan@@
erisch
erwachsen@@
fami@@
fass@@
fee@@
feln
fon
frau@@
frie@@
ful@@
fußgängerüber@@
fän@@
fün@@
galerie
gall@@
gar
gegneri@@
geldbör@@
gement
gemäl@@
geno@@
gesä@@
gewich@@
gewicht
heraush@@
hnen@@
hälter
hür@@
infan@@
ington
jugg@@
kapu@@
karu@@
kei@@
koff@@
käfi@@
käm@@
label@@
lad@@
later@@
legestelle
lett
liefer@@
lil@@
loun@@
lows
mahl@@
maler@@
mannequ@@
menten
mexi@@
mierte
mierter
mock
monopol@@
mp
mäher
männ@@
mögli@@
mün@@
namens@@
nament
nass@@
navig@@
neck@@
neopren@@
num@@
näch@@
oce@@
od@@
onloo@@
othek
pa
paral@@
pfer
phon
pian@@
pic@@
ping@@
pizz@@
pony@@
potat@@
präsen@@
pulli
pump@@
quarter@@
radrenn@@
reiche
reklame@@
restauran@@
rik@@
rüstung
sanddün@@
schut@@
schwi@@
schäfer@@
scienti@@
scream@@
scu@@
seicht@@
shin@@
shir@@
skinned
snowboard@@
sonnenunter@@
sonni@@
spannt
spot@@
spren@@
sprü@@
ssa@@
ssiert
steig
ston
strumpf@@
stüten
suspen@@
syn@@
synchro@@
synchroni@@
tain@@
telefonz@@
trol@@
trägern
tter@@
ttery
ttet
twagen
umarm@@
unusu@@
ussion
uta@@
vacuum@@
vari@@
vement
veranst@@
veranstalt@@
verkaufs@@
vern
vice
vie
vord@@
vortra@@
wasserspren@@
windo@@
woll@@
worl@@
wrest@@
zau@@
zeige
zig@@
zuschau@@
zün@@
é
é@@
ñ@@
7@@
acrobati@@
agen
allen@@
amerikani@@
ander
anz
approa@@
arbeiter@@
audi@@
aufgerei@@
ause
ausseh@@
beau@@
bede@@
berü@@
beut@@
bewe@@
beweg@@
bigen
bill@@
billar@@
blea@@
blond-@@
blue@@
board@@
bong@@
boo
born
bott@@
bou@@
brett@@
brides@@
brünet@@
buff@@
bün@@
bür@@
camer@@
cele@@
cers
chur@@
cil
class@@
classi@@
close@@
cture
dekora@@
demonstr@@
deo
digkeit
donal@@
drahtz@@
dread@@
drin@@
eht
einkaufsz@@
ele
emand
emon@@
ental
enti@@
entran@@
entspan@@
escal@@
eth@@
even@@
ever@@
exer@@
felsvor@@
ffee
fini@@
fitne@@
fläch@@
flüssig@@
fotografi@@
führ@@
gebau@@
gebildet
gehö@@
gehü@@
gem@@
gepflaster@@
gerer
gewäss@@
gir@@
gitar@@
gner
graff@@
graffit@@
grä@@
gür@@
hals@@
hard@@
harmoni@@
hill@@
hout
hug@@
ima@@
invol@@
irts
itt
jog@@
karo@@
kehr@@
kets
klassen@@
konzentri@@
kunstwer@@
la-@@
lapt@@
leich@@
lein@@
letes
litt@@
lly
locks
läu@@
mach
manö@@
marath@@
masch@@
maschen@@
mc@@
mcdonal@@
meiß@@
mern
mir@@
mmer@@
moto@@
motocross@@
moun@@
mpf@@
muse@@
müllton@@
nea@@
neigh@@
ners
oba@@
oph@@
or-@@
orn@@
outf@@
pajam@@
paper@@
papi@@
partment
pfel
pflaster@@
ples
posi@@
possi@@
ppies
presen@@
pullo@@
puzz@@
rah@@
rand@@
rasse
reflekti@@
rench
repair@@
richt@@
ried
rollersk@@
roof@@
räder
sammlung
scaffol@@
scen@@
schauf@@
schlit@@
schmut@@
schnüff@@
schoko@@
schriften
scul@@
secon@@
seli@@
sell@@
sely
sentation
shaw@@
shoul@@
sidel@@
silhou@@
sino
sklei@@
sle
smar@@
srichter
ssi
ssig@@
stamme@@
steiger
stert
stin@@
strin@@
stuff@@
swee@@
swesten
swin@@
symbo@@
tax@@
ters@@
thi@@
tial
togra@@
torhü@@
tos
tour@@
trei@@
tribün@@
troph@@
ttert
tty
two@@
u-@@
undert
urs
veral
versamm@@
verschne@@
versu@@
vis@@
vri@@
wai@@
wash@@
währen@@
wärt@@
xing
xy@@
xylo@@
ympi@@
zeremon@@
zist
zogen
zogen@@
$
&apos;@@
-american
=
_
aband@@
accor@@
achter@@
adju@@
af@@
after@@
agi@@
aku@@
akustik@@
amer@@
amo@@
amü@@
aquari@@
arre
asiati@@
attemp@@
aufblas@@
auft
auran@@
auss@@
automat@@
bab@@
bad@@
bal
ban
barfü@@
bchen
bed@@
bekan@@
bene@@
benut@@
betra@@
bewal@@
bies
blas@@
bora@@
borne
brand@@
brown@@
brun@@
bub@@
burg@@
bäl@@
bör@@
ca-@@
caf@@
cany@@
cated
cauc@@
chal@@
chalk@@
cham@@
checker@@
cident
climb@@
clou@@
comput@@
conc@@
concre@@
contra@@
dau@@
deco@@
dent
dest
differ@@
dium
dt
dump@@
ehmen
ehr
eiscre@@
elect@@
elek@@
erseite
erzeug@@
establi@@
eys
fac@@
flau@@
flops
foli@@
footed
frieden@@
froren@@
fted
füllten
geflo@@
gepf@@
gepä@@
geschä@@
gesti@@
gestiku@@
gestrei@@
gestreif@@
gical
glied
gray@@
gue
guitar@@
gul@@
handwer@@
herau@@
heraushän@@
hom@@
hospit@@
hub@@
hula-@@
hula-hoop-@@
häuti@@
höl@@
ih@@
individu@@
indu@@
inju@@
irt
jewe@@
jugend@@
kab@@
kaja@@
kajak@@
karre
kastan@@
kleidet
konstruk@@
köpfiger
lade@@
lared
laugh@@
legg@@
leimer
lichkeit
ligi@@
läch@@
mals
marschi@@
milit@@
militä@@
mpft
mur@@
män@@
mül@@
neben@@
numer@@
obsta@@
old@@
orient@@
ory
outfiel@@
ow
pating
perform@@
performan@@
perspektive
pflo@@
pfü@@
pierc@@
pig@@
platt@@
pod
police@@
practi@@
publi@@
pull@@
py@@
pär@@
q@@
quo@@
race@@
rece@@
ree
repa@@
repar@@
rested
ricksha@@
riksch@@
rosti@@
runn@@
rying
samm@@
sax@@
schacht@@
scheinlich
schied@@
schl@@
schlen@@
schwa@@
schwar@@
selbe
shal@@
shepher@@
shirt@@
shment
silhouet@@
skap@@
smart@@
snea@@
spark
sque@@
squee@@
ssell
ssor
stab@@
stening
strau@@
stromschn@@
struk@@
stures
sungen
suring
tender
tently
thum@@
tooth@@
tory
towar@@
track@@
traf@@
treadmi@@
tting
ulen
unice@@
uniform@@
unord@@
unordent@@
unte@@
untersu@@
usk
utieren
vel
vergnü@@
verschie@@
verwir@@
vibran@@
volley@@
vorbe@@
weih@@
wel
wheelbar@@
yar@@
yho@@
za
zurü@@
zylin@@
zäunten
à
äht
älter@@
äumen
è@@
öhn@@
öser
üb@@
überda@@
