{
  "<pad>": 0,
  "<bos>": 1,
  "<eos>": 2,
  "<unk>": 3,
  ".": 4,
  "a": 5,
  "in": 6,
  "ein": 7,
  "einem": 8,
  ",": 9,
  "the": 10,
  "eine": 11,
  "und": 12,
  "mit": 13,
  "auf": 14,
  "on": 15,
  "man": 16,
  "mann": 17,
  "is": 18,
  "and": 19,
  "of": 20,
  "einer": 21,
  "with": 22,
  "an": 23,
  "der": 24,
  "frau": 25,
  "woman": 26,
  "die": 27,
  "two": 28,
  "zwei": 29,
  "are": 30,
  "einen": 31,
  "to": 32,
  "im": 33,
  "people": 34,
  "at": 35,
  "wearing": 36,
  "von": 37,
  "young": 38,
  "sich": 39,
  "white": 40,
  "shirt": 41,
  "dem": 42,
  "mädchen": 43,
  "junge": 44,
  "black": 45,
  "his": 46,
  "while": 47,
  "vor": 48,
  "zu": 49,
  "blue": 50,
  "men": 51,
  "steht": 52,
  "sitting": 53,
  "red": 54,
  "den": 55,
  "girl": 56,
  "boy": 57,
  "dog": 58,
  "männer": 59,
  "sitzt": 60,
  "hund": 61,
  "standing": 62,
  "playing": 63,
  "group": 64,
  "person": 65,
  "street": 66,
  "straße": 67,
  "während": 68,
  "down": 69,
  "walking": 70,
  "gruppe": 71,
  "her": 72,
  "hält": 73,
  "spielt": 74,
  "front": 75,
  "das": 76,
  "hemd": 77,
  "holding": 78,
  "ball": 79,
  "hat": 80,
  "personen": 81,
  "über": 82,
  "one": 83,
  "drei": 84,
  "by": 85,
  "water": 86,
  "eines": 87,
  "three": 88,
  "blauen": 89,
  "ist": 90,
  "frauen": 91,
  "roten": 92,
  "women": 93,
  "kind": 94,
  "weißen": 95,
  "neben": 96,
  "aus": 97,
  "stehen": 98,
  "up": 99,
  "spielen": 100,
  "am": 101,
  "green": 102,
  "sitzen": 103,
  "menschen": 104,
  "little": 105,
  "for": 106,
  "as": 107,
  "durch": 108,
  "looking": 109,
  "child": 110,
  "geht": 111,
  "bei": 112,
  "outside": 113,
  "fährt": 114,
  "trägt": 115,
  "hand": 116,
  "large": 117,
  "wasser": 118,
  "through": 119,
  "um": 120,
  "kinder": 121,
  "yellow": 122,
  "kleines": 123,
  "children": 124,
  "brown": 125,
  "macht": 126,
  "springt": 127,
  "from": 128,
  "their": 129,
  "schwarzen": 130,
  "into": 131,
  "kleiner": 132,
  "entlang": 133,
  "&quot;": 134,
  "small": 135,
  "park": 136,
  "next": 137,
  "leute": 138,
  "other": 139,
  "dressed": 140,
  "out": 141,
  "gehen": 142,
  "some": 143,
  "-@@": 144,
  "over": 145,
  "building": 146,
  "etwas": 147,
  "riding": 148,
  "running": 149,
  "mehrere": 150,
  "orange": 151,
  "seinem": 152,
  "er": 153,
  "oberteil": 154,
  "großen": 155,
  "near": 156,
  "jacket": 157,
  "t-shirt": 158,
  "another": 159,
  "around": 160,
  "baby": 161,
  "grünen": 162,
  "stand": 163,
  "jungen": 164,
  "field": 165,
  "kleidung": 166,
  "es": 167,
  "sidewalk": 168,
  "beach": 169,
  "crowd": 170,
  "jeans": 171,
  "jacke": 172,
  "läuft": 173,
  "pink": 174,
  "stands": 175,
  "be@@": 176,
  "jumping": 177,
  "shorts": 178,
  "sits": 179,
  "table": 180,
  "fahrrad": 181,
  "sind": 182,
  "behind": 183,
  "ge@@": 184,
  "für": 185,
  "hintergrund": 186,
  "freien": 187,
  "schaut": 188,
  "grass": 189,
  "bike": 190,
  "strand": 191,
  "luft": 192,
  "anderen": 193,
  "background": 194,
  "snow": 195,
  "city": 196,
  "junger": 197,
  "tisch": 198,
  "&apos;s": 199,
  "hut": 200,
  "girls": 201,
  "air": 202,
  "top": 203,
  "gelben": 204,
  "hinter": 205,
  "gebäude": 206,
  "player": 207,
  "sie": 208,
  "nach": 209,
  "looks": 210,
  "asian": 211,
  "wall": 212,
  "band": 213,
  "andere": 214,
  "dogs": 215,
  "dress": 216,
  "several": 217,
  "that": 218,
  "kleine": 219,
  "older": 220,
  "four": 221,
  "off": 222,
  "vier": 223,
  "camera": 224,
  "nähe": 225,
  "wird": 226,
  "beim": 227,
  "boden": 228,
  "schwarzer": 229,
  "talking": 230,
  "essen": 231,
  "lady": 232,
  "something": 233,
  "sand": 234,
  "kleinen": 235,
  "soccer": 236,
  "kamera": 237,
  "menschenmenge": 238,
  "skateboard": 239,
  "walks": 240,
  "along": 241,
  "guitar": 242,
  "boys": 243,
  "hair": 244,
  "working": 245,
  "paar": 246,
  "play": 247,
  "er@@": 248,
  "food": 249,
  "hunde": 250,
  "rock": 251,
  "together": 252,
  "a@@": 253,
  "gras": 254,
  "vorbei": 255,
  "hoch": 256,
  "pool": 257,
  "smiling": 258,
  "des": 259,
  "schnee": 260,
  "rennt": 261,
  "restaurant": 262,
  "ten": 263,
  "gray": 264,
  "it": 265,
  "game": 266,
  "picture": 267,
  "has": 268,
  "ihre": 269,
  "an@@": 270,
  "s": 271,
  "car": 272,
  "plays": 273,
  "unter": 274,
  "kleid": 275,
  "feld": 276,
  "holds": 277,
  "ver@@": 278,
  "ihren": 279,
  "pants": 280,
  "bench": 281,
  "fahren": 282,
  "road": 283,
  "side": 284,
  "gitarre": 285,
  "him": 286,
  "old": 287,
  "e": 288,
  "glasses": 289,
  "e@@": 290,
  "s@@": 291,
  "walk": 292,
  "sit": 293,
  "stage": 294,
  "t@@": 295,
  "carrying": 296,
  "couple": 297,
  "älterer": 298,
  "rennen": 299,
  "sein": 300,
  "brille": 301,
  "bühne": 302,
  "bank": 303,
  "g@@": 304,
  "draußen": 305,
  "zusammen": 306,
  "ihr": 307,
  "them": 308,
  "en@@": 309,
  "bicycle": 310,
  "t": 311,
  "als": 312,
  "i@@": 313,
  "braunen": 314,
  "male": 315,
  "face": 316,
  "foto": 317,
  "baseball": 318,
  "herum": 319,
  "race": 320,
  "tree": 321,
  "weißer": 322,
  "kopf": 323,
  "seine": 324,
  "basketball": 325,
  "blickt": 326,
  "hose": 327,
  "sehen": 328,
  "taking": 329,
  "gehweg": 330,
  "stadt": 331,
  "each": 332,
  "d@@": 333,
  "uniform": 334,
  "en": 335,
  "football": 336,
  "te": 337,
  "laufen": 338,
  "doing": 339,
  "dabei": 340,
  "seinen": 341,
  "weg": 342,
  "k@@": 343,
  "day": 344,
  "head": 345,
  "across": 346,
  "watching": 347,
  "dirt": 348,
  "guy": 349,
  "boat": 350,
  "there": 351,
  "area": 352,
  "blond": 353,
  "re@@": 354,
  "bus": 355,
  "in@@": 356,
  "liegt": 357,
  "team": 358,
  "tragen": 359,
  "hinunter": 360,
  "versucht": 361,
  "arbeitet": 362,
  "brauner": 363,
  "tennis": 364,
  "jumps": 365,
  "back": 366,
  "be": 367,
  "hands": 368,
  "ter": 369,
  "ground": 370,
  "m@@": 371,
  "female": 372,
  "room": 373,
  "kids": 374,
  "schauen": 375,
  "performing": 376,
  "dame": 377,
  "ch@@": 378,
  "coat": 379,
  "wand": 380,
  "wie": 381,
  "große": 382,
  "or": 383,
  "who": 384,
  "its": 385,
  "eating": 386,
  "ed": 387,
  "he": 388,
  "f@@": 389,
  "machen": 390,
  "lächelt": 391,
  "sch@@": 392,
  "being": 393,
  "gen": 394,
  "using": 395,
  "striped": 396,
  "orangefarbenen": 397,
  "suit": 398,
  "ihrem": 399,
  "arbeiten": 400,
  "schwarz": 401,
  "ers": 402,
  "di@@": 403,
  "watch": 404,
  "under": 405,
  "b@@": 406,
  "ältere": 407,
  "horse": 408,
  "many": 409,
  "store": 410,
  "halten": 411,
  "ihm": 412,
  "tag": 413,
  "boot": 414,
  "mouth": 415,
  "o@@": 416,
  "purple": 417,
  "junges": 418,
  "zeigt": 419,
  "arm": 420,
  "sign": 421,
  "long": 422,
  "this": 423,
  "bürgersteig": 424,
  "hosen": 425,
  "liest": 426,
  "look": 427,
  "outfit": 428,
  "sieht": 429,
  "spricht": 430,
  "runs": 431,
  "reading": 432,
  "players": 433,
  "un@@": 434,
  "unterhalten": 435,
  "construction": 436,
  "sunglasses": 437,
  "spieler": 438,
  "haaren": 439,
  "helm": 440,
  "clothing": 441,
  "microphone": 442,
  "pferd": 443,
  "y": 444,
  "c@@": 445,
  "p@@": 446,
  "mountain": 447,
  "mantel": 448,
  "ocean": 449,
  "rosa": 450,
  "toy": 451,
  "auf@@": 452,
  "dark": 453,
  "workers": 454,
  "during": 455,
  "viele": 456,
  "de@@": 457,
  "grauen": 458,
  "sonnenbrille": 459,
  "z@@": 460,
  "middle": 461,
  "watches": 462,
  "weißem": 463,
  "zum": 464,
  "bild": 465,
  "climbing": 466,
  "ing": 467,
  "blauem": 468,
  "gekleidete": 469,
  "past": 470,
  "trick": 471,
  "work": 472,
  "elderly": 473,
  "ins": 474,
  "seiner": 475,
  "anzug": 476,
  "ein@@": 477,
  "against": 478,
  "auto": 479,
  "gesicht": 480,
  "helmet": 481,
  "ra@@": 482,
  "train": 483,
  "dancing": 484,
  "singt": 485,
  "window": 486,
  "klettert": 487,
  "n@@": 488,
  "ihnen": 489,
  "rides": 490,
  "all": 491,
  "al@@": 492,
  "chair": 493,
  "führt": 494,
  "they": 495,
  "about": 496,
  "graffiti": 497,
  "posing": 498,
  "weiß": 499,
  "five": 500,
  "spiel": 501,
  "ab@@": 502,
  "covered": 503,
  "bag": 504,
  "de": 505,
  "fußball": 506,
  "posiert": 507,
  "trees": 508,
  "u@@": 509,
  "darauf": 510,
  "felsen": 511,
  "having": 512,
  "outdoor": 513,
  "st@@": 514,
  "waiting": 515,
  "wooden": 516,
  "arbeiter": 517,
  "d": 518,
  "fünf": 519,
  "raum": 520,
  "shirts": 521,
  "einige": 522,
  "very": 523,
  "befindet": 524,
  "blauer": 525,
  "li@@": 526,
  "swimming": 527,
  "getting": 528,
  "bar": 529,
  "wirft": 530,
  "baum": 531,
  "floor": 532,
  "ice": 533,
  "stuhl": 534,
  "blau": 535,
  "line": 536,
  "trying": 537,
  "mikrofon": 538,
  "colorful": 539,
  "g": 540,
  "le@@": 541,
  "schild": 542,
  "la@@": 543,
  "fenster": 544,
  "schwarzem": 545,
  "sehr": 546,
  "statue": 547,
  "weiße": 548,
  "busy": 549,
  "gekleideter": 550,
  "fence": 551,
  "jump": 552,
  "singing": 553,
  "ge": 554,
  "cart": 555,
  "geschäft": 556,
  "trikot": 557,
  "ds": 558,
  "meer": 559,
  "pullover": 560,
  "ro@@": 561,
  "rotem": 562,
  "wiese": 563,
  "oder": 564,
  "schwarze": 565,
  "springen": 566,
  "truck": 567,
  "book": 568,
  "kindern": 569,
  "langen": 570,
  "roter": 571,
  "ung": 572,
  "wald": 573,
  "hand@@": 574,
  "high": 575,
  "schen": 576,
  "big": 577,
  "frisbee": 578,
  "isst": 579,
  "k": 580,
  "light": 581,
  "lo@@": 582,
  "ride": 583,
  "hill": 584,
  "holz@@": 585,
  "inside": 586,
  "laying": 587,
  "market": 588,
  "männern": 589,
  "o": 590,
  "se@@": 591,
  "wagen": 592,
  "anderer": 593,
  "bluse": 594,
  "board": 595,
  "hats": 596,
  "mütze": 597,
  "cap": 598,
  "do@@": 599,
  "gestreiften": 600,
  "i": 601,
  "se": 602,
  "tan": 603,
  "wartet": 604,
  "aus@@": 605,
  "body": 606,
  "bright": 607,
  "h@@": 608,
  "motorrad": 609,
  "kitchen": 610,
  "others": 611,
  "cellphone": 612,
  "el@@": 613,
  "grassy": 614,
  "l": 615,
  "path": 616,
  "si@@": 617,
  "v@@": 618,
  "alter": 619,
  "buch": 620,
  "parade": 621,
  "someone": 622,
  "ern": 623,
  "ma@@": 624,
  "making": 625,
  "ri@@": 626,
  "ti@@": 627,
  "voller": 628,
  "-": 629,
  "clothes": 630,
  "haar": 631,
  "night": 632,
  "posieren": 633,
  "takes": 634,
  "motorcycle": 635,
  "rot": 636,
  "st": 637,
  "ts": 638,
  "zug": 639,
  "me@@": 640,
  "tanzen": 641,
  "umbrella": 642,
  "werden": 643,
  "full": 644,
  "stock": 645,
  "towards": 646,
  "brick": 647,
  "computer": 648,
  "enjoying": 649,
  "oberkörper": 650,
  "sweatshirt": 651,
  "track": 652,
  "volleyball": 653,
  "bereitet": 654,
  "ger": 655,
  "see": 656,
  "surfer": 657,
  "zieht": 658,
  "hügel": 659,
  "metal": 660,
  "n": 661,
  "shop": 662,
  "markt": 663,
  "paper": 664,
  "river": 665,
  "swing": 666,
  "piece": 667,
  "platz": 668,
  "ready": 669,
  "reitet": 670,
  "tank": 671,
  "betrachtet": 672,
  "l@@": 673,
  "sche": 674,
  "she": 675,
  "art": 676,
  "blonde": 677,
  "ca@@": 678,
  "handy": 679,
  "hockey": 680,
  "leuten": 681,
  "party": 682,
  "w@@": 683,
  "warten": 684,
  "zu@@": 685,
  "zwischen": 686,
  "instrument": 687,
  "oben": 688,
  "open": 689,
  "snowboarder": 690,
  "spielzeug": 691,
  "ba@@": 692,
  "em": 693,
  "sweater": 694,
  "tasche": 695,
  "berg": 696,
  "colored": 697,
  "grill": 698,
  "schläft": 699,
  "ab": 700,
  "bäumen": 701,
  "worker": 702,
  "stick": 703,
  "above": 704,
  "lehnt": 705,
  "p": 706,
  "pa@@": 707,
  "painting": 708,
  "vor@@": 709,
  "bu@@": 710,
  "lake": 711,
  "adults": 712,
  "con@@": 713,
  "dance": 714,
  "fangen": 715,
  "going": 716,
  "house": 717,
  "händen": 718,
  "mi@@": 719,
  "phone": 720,
  "um@@": 721,
  "maul": 722,
  "music": 723,
  "po@@": 724,
  "run": 725,
  "seite": 726,
  "set": 727,
  "to@@": 728,
  "beobachtet": 729,
  "fluss": 730,
  "hard": 731,
  "küche": 732,
  "miteinander": 733,
  "sa@@": 734,
  "shopping": 735,
  "snowy": 736,
  "sp@@": 737,
  "tes": 738,
  "vest": 739,
  "le": 740,
  "sh@@": 741,
  "surrounded": 742,
  "wave": 743,
  "ihrer": 744,
  "onto": 745,
  "stone": 746,
  "ta@@": 747,
  "tanzt": 748,
  "uniforms": 749,
  "bauarbeiter": 750,
  "cowboy": 751,
  "crowded": 752,
  "kid": 753,
  "kleinkind": 754,
  "outdoors": 755,
  "rucksack": 756,
  "so@@": 757,
  "subway": 758,
  "zaun": 759,
  "al": 760,
  "couch": 761,
  "lächeln": 762,
  "photo": 763,
  "radfahrer": 764,
  "ss@@": 765,
  "backpack": 766,
  "beside": 767,
  "gear": 768,
  "schiebt": 769,
  "smiles": 770,
  "wasser@@": 771,
  "end": 772,
  "haben": 773,
  "mo@@": 774,
  "on@@": 775,
  "pole": 776,
  "2": 777,
  "at@@": 778,
  "teil": 779,
  "vom": 780,
  "welle": 781,
  "african": 782,
  "american": 783,
  "befinden": 784,
  "drinking": 785,
  "gegen": 786,
  "her@@": 787,
  "chen": 788,
  "family": 789,
  "it@@": 790,
  "rücken": 791,
  "schwimmbecken": 792,
  "treppe": 793,
  "bridge": 794,
  "denen": 795,
  "event": 796,
  "fire": 797,
  "flowers": 798,
  "über@@": 799,
  "ar@@": 800,
  "co@@": 801,
  "haus": 802,
  "lot": 803,
  "r@@": 804,
  "skateboarder": 805,
  "toddler": 806,
  "gathered": 807,
  "guys": 808,
  "ly": 809,
  "police": 810,
  "unter@@": 811,
  "arms": 812,
  "hanging": 813,
  "kurzen": 814,
  "malt": 815,
  "nimmt": 816,
  "y@@": 817,
  "asiatische": 818,
  "away": 819,
  "catch": 820,
  "ck": 821,
  "ert": 822,
  "beautiful": 823,
  "ck@@": 824,
  "ges": 825,
  "preparing": 826,
  "pro@@": 827,
  "show": 828,
  "brücke": 829,
  "ke": 830,
  "schneidet": 831,
  "blumen": 832,
  "costume": 833,
  "familie": 834,
  "gebäudes": 835,
  "leaning": 836,
  "ni@@": 837,
  "object": 838,
  "sleeping": 839,
  "steps": 840,
  "stück": 841,
  "verkauft": 842,
  "zur": 843,
  "after": 844,
  "fishing": 845,
  "großer": 846,
  "ka@@": 847,
  "like": 848,
  "machine": 849,
  "mitten": 850,
  "or@@": 851,
  "bikini": 852,
  "einander": 853,
  "jemand": 854,
  "pose": 855,
  "rosafarbenen": 856,
  "te@@": 857,
  "ting": 858,
  "trinkt": 859,
  "versammelt": 860,
  "bunten": 861,
  "ent@@": 862,
  "ex@@": 863,
  "fountain": 864,
  "m": 865,
  "plaid": 866,
  "rope": 867,
  "sprung": 868,
  "ve": 869,
  "ei@@": 870,
  "erwachsene": 871,
  "fe@@": 872,
  "geländer": 873,
  "hängt": 874,
  "shirtless": 875,
  "stairs": 876,
  "autos": 877,
  "chairs": 878,
  "ihn": 879,
  "lich": 880,
  "rocks": 881,
  "sen": 882,
  "take": 883,
  "teams": 884,
  "wa@@": 885,
  "adult": 886,
  "bo@@": 887,
  "ch": 888,
  "drink": 889,
  "ende": 890,
  "he@@": 891,
  "hof": 892,
  "rodeo": 893,
  "rote": 894,
  "ber@@": 895,
  "gerade": 896,
  "reihe": 897,
  "shoes": 898,
  "spiel@@": 899,
  "telefoniert": 900,
  "belebten": 901,
  "gen@@": 902,
  "gt": 903,
  "hebt": 904,
  "spazieren": 905,
  "tritt": 906,
  "vi@@": 907,
  "blicken": 908,
  "dock": 909,
  "glass": 910,
  "ha@@": 911,
  "hemden": 912,
  "metall@@": 913,
  "schlägt": 914,
  "schwimmt": 915,
  "selling": 916,
  "straßen@@": 917,
  "sunny": 918,
  "umgeben": 919,
  "bart": 920,
  "does": 921,
  "forest": 922,
  "mutter": 923,
  "winter": 924,
  "ger@@": 925,
  "gewässer": 926,
  "laden": 927,
  "new": 928,
  "ps": 929,
  "racing": 930,
  "ru@@": 931,
  "schaukel": 932,
  "setting": 933,
  "ski": 934,
  "we@@": 935,
  "wood": 936,
  "bikes": 937,
  "decke": 938,
  "fliegt": 939,
  "freiem": 940,
  "fußballspieler": 941,
  "gekleidet": 942,
  "kostüm": 943,
  "ne@@": 944,
  "schneebedeckten": 945,
  "tall": 946,
  "vielen": 947,
  "view": 948,
  "weste": 949,
  "bi@@": 950,
  "both": 951,
  "corner": 952,
  "flag": 953,
  "grünem": 954,
  "putting": 955,
  "seil": 956,
  "station": 957,
  "eren": 958,
  "fuß": 959,
  "hände": 960,
  "publikum": 961,
  "pushing": 962,
  "short": 963,
  "sonnigen": 964,
  "teenager": 965,
  "ten@@": 966,
  "throwing": 967,
  "between": 968,
  "ding": 969,
  "equipment": 970,
  "fla@@": 971,
  "have": 972,
  "himmel": 973,
  "ladies": 974,
  "richtung": 975,
  "slide": 976,
  "way": 977,
  "fest": 978,
  "hohen": 979,
  "kämpfen": 980,
  "laughing": 981,
  "pe@@": 982,
  "public": 983,
  "sofa": 984,
  "weißes": 985,
  "alte": 986,
  "am@@": 987,
  "bahn": 988,
  "dunklen": 989,
  "herunter": 990,
  "instruments": 991,
  "bed": 992,
  "da@@": 993,
  "fish": 994,
  "pictures": 995,
  "wi@@": 996,
  "au@@": 997,
  "bereiten": 998,
  "blaue": 999,
  "da": 1000,
  "dach": 1001,
  "fahrzeug": 1002,
  "kopfbedeckung": 1003,
  "land": 1004,
  "nen": 1005,
  "net": 1006,
  "plastic": 1007,
  "ramp": 1008,
  "sen@@": 1009,
  "zuschauen": 1010,
  "3": 1011,
  "asiatischer": 1012,
  "base": 1013,
  "blondes": 1014,
  "eln": 1015,
  "marathon": 1016,
  "orangen": 1017,
  "playground": 1018,
  "poses": 1019,
  "reads": 1020,
  "sta@@": 1021,
  "trail": 1022,
  "ut@@": 1023,
  "which": 1024,
  "woods": 1025,
  "works": 1026,
  "yard": 1027,
  "zuschauer": 1028,
  "alten": 1029,
  "beard": 1030,
  "blick": 1031,
  "c": 1032,
  "concrete": 1033,
  "der@@": 1034,
  "fi@@": 1035,
  "ho@@": 1036,
  "mannes": 1037,
  "musik": 1038,
  "pi@@": 1039,
  "scher": 1040,
  "school": 1041,
  "skirt": 1042,
  "sten": 1043,
  "sun": 1044,
  "ur@@": 1045,
  "zeitung": 1046,
  "überqueren": 1047,
  "midair": 1048,
  "ons": 1049,
  "sh": 1050,
  "bowling": 1051,
  "ckt": 1052,
  "hinauf": 1053,
  "just": 1054,
  "led": 1055,
  "number": 1056,
  "papier": 1057,
  "sk@@": 1058,
  "stein@@": 1059,
  "ster": 1060,
  "th@@": 1061,
  "den@@": 1062,
  "enden": 1063,
  "karierten": 1064,
  "ken": 1065,
  "kunststück": 1066,
  "les": 1067,
  "mauer": 1068,
  "seated": 1069,
  "braune": 1070,
  "davon": 1071,
  "distance": 1072,
  "genießt": 1073,
  "lined": 1074,
  "mar@@": 1075,
  "schirm": 1076,
  "where": 1077,
  "attire": 1078,
  "ausrüstung": 1079,
  "bags": 1080,
  "get": 1081,
  "ko@@": 1082,
  "maschine": 1083,
  "schuhen": 1084,
  "stange": 1085,
  "toward": 1086,
  "what": 1087,
  "zusehen": 1088,
  "beer": 1089,
  "box": 1090,
  "car@@": 1091,
  "cooking": 1092,
  "e-@@": 1093,
  "gelber": 1094,
  "gibt": 1095,
  "ker": 1096,
  "lacht": 1097,
  "laptop": 1098,
  "ling": 1099,
  "mittleren": 1100,
  "sechs": 1101,
  "six": 1102,
  "stufen": 1103,
  "veranstaltung": 1104,
  "zuschauern": 1105,
  "b": 1106,
  "benutzt": 1107,
  "bereich": 1108,
  "blond-hair": 1109,
  "boots": 1110,
  "clown": 1111,
  "cutting": 1112,
  "filled": 1113,
  "führen": 1114,
  "menge": 1115,
  "mitte": 1116,
  "rampe": 1117,
  "rider": 1118,
  "right": 1119,
  "vests": 1120,
  "&apos;": 1121,
  "buildings": 1122,
  "court": 1123,
  "cream": 1124,
  "cross": 1125,
  "einigen": 1126,
  "fa@@": 1127,
  "gegenstand": 1128,
  "großes": 1129,
  "left": 1130,
  "leiter": 1131,
  "lässt": 1132,
  "nummer": 1133,
  "pulling": 1134,
  "shore": 1135,
  "stühlen": 1136,
  "tent": 1137,
  "alters": 1138,
  "baseballspieler": 1139,
  "ches": 1140,
  "chten": 1141,
  "hell@@": 1142,
  "home": 1143,
  "korb": 1144,
  "mensch": 1145,
  "middle-aged": 1146,
  "mother": 1147,
  "spielplatz": 1148,
  "sport@@": 1149,
  "ssen": 1150,
  "treten": 1151,
  "tunnel": 1152,
  "unterhält": 1153,
  ";": 1154,
  "appears": 1155,
  "ben": 1156,
  "bereit": 1157,
  "cliff": 1158,
  "concert": 1159,
  "crossing": 1160,
  "fotos": 1161,
  "friends": 1162,
  "liche": 1163,
  "rasen": 1164,
  "sky": 1165,
  "smoking": 1166,
  "stellt": 1167,
  "trinken": 1168,
  "zusieht": 1169,
  "bearded": 1170,
  "edge": 1171,
  "few": 1172,
  "hoch@@": 1173,
  "j@@": 1174,
  "ler": 1175,
  "mountains": 1176,
  "nahe": 1177,
  "nebeneinander": 1178,
  "scheint": 1179,
  "schi@@": 1180,
  "showing": 1181,
  "spectators": 1182,
  "zuschaut": 1183,
  "armen": 1184,
  "bett": 1185,
  "cars": 1186,
  "for@@": 1187,
  "fußball@@": 1188,
  "horses": 1189,
  "jersey": 1190,
  "lila": 1191,
  "make": 1192,
  "mannschaft": 1193,
  "nachts": 1194,
  "pp@@": 1195,
  "rei@@": 1196,
  "tra@@": 1197,
  "ü@@": 1198,
  "dresses": 1199,
  "nearby": 1200,
  "performs": 1201,
  "scarf": 1202,
  "son": 1203,
  "suits": 1204,
  "surfboard": 1205,
  "ted": 1206,
  "typ": 1207,
  "apron": 1208,
  "augen": 1209,
  "bar@@": 1210,
  "beton@@": 1211,
  "bier": 1212,
  "carries": 1213,
  "ce": 1214,
  "driving": 1215,
  "hinten": 1216,
  "kostümen": 1217,
  "mund": 1218,
  "outfits": 1219,
  "perform": 1220,
  "roller": 1221,
  "rotes": 1222,
  "sonne": 1223,
  "ss": 1224,
  "tem": 1225,
  "tor": 1226,
  "trikots": 1227,
  "versuchen": 1228,
  "zelt": 1229,
  "zigarette": 1230,
  "arts": 1231,
  "coffee": 1232,
  "fruit": 1233,
  "leaves": 1234,
  "legt": 1235,
  "läufer": 1236,
  "mehreren": 1237,
  "time": 1238,
  "back@@": 1239,
  "beobachten": 1240,
  "biker": 1241,
  "cake": 1242,
  "cigarette": 1243,
  "eis@@": 1244,
  "flower": 1245,
  "fängt": 1246,
  "ga@@": 1247,
  "gentleman": 1248,
  "holz": 1249,
  "ls": 1250,
  "painted": 1251,
  "parked": 1252,
  "pre@@": 1253,
  "schal": 1254,
  "schwimm@@": 1255,
  "schürze": 1256,
  "ste@@": 1257,
  "structure": 1258,
  "students": 1259,
  "uses": 1260,
  "various": 1261,
  "vendor": 1262,
  "werfen": 1263,
  "beide": 1264,
  "cup": 1265,
  "flagge": 1266,
  "gi@@": 1267,
  "go": 1268,
  "goggles": 1269,
  "kniet": 1270,
  "na@@": 1271,
  "no": 1272,
  "rad": 1273,
  "raucht": 1274,
  "sc@@": 1275,
  "shot": 1276,
  "ski@@": 1277,
  "smile": 1278,
  "sti@@": 1279,
  "talks": 1280,
  "tor@@": 1281,
  "vehicle": 1282,
  "w": 1283,
  "westen": 1284,
  "younger": 1285,
  "ä@@": 1286,
  "öffentlichen": 1287,
  "betrachten": 1288,
  "ble": 1289,
  "bottle": 1290,
  "cken": 1291,
  "door": 1292,
  "drums": 1293,
  "ferne": 1294,
  "flying": 1295,
  "gold": 1296,
  "hang": 1297,
  "liegen": 1298,
  "lit": 1299,
  "lying": 1300,
  "martial": 1301,
  "nehmen": 1302,
  "nicht": 1303,
  "qu@@": 1304,
  "ring": 1305,
  "rutscht": 1306,
  "stri@@": 1307,
  "ter@@": 1308,
  "tri@@": 1309,
  "us": 1310,
  "verschneiten": 1311,
  "wanderer": 1312,
  "bathing": 1313,
  "do": 1314,
  "et": 1315,
  "eyes": 1316,
  "flags": 1317,
  "gra@@": 1318,
  "grün": 1319,
  "grüner": 1320,
  "hit": 1321,
  "hüten": 1322,
  "kicking": 1323,
  "paint": 1324,
  "rutsche": 1325,
  "ö@@": 1326,
  "ange@@": 1327,
  "ar": 1328,
  "balls": 1329,
  "blonden": 1330,
  "bull": 1331,
  "coming": 1332,
  "diese": 1333,
  "erwachsener": 1334,
  "et@@": 1335,
  "fahr@@": 1336,
  "gehsteig": 1337,
  "guckt": 1338,
  "jackets": 1339,
  "klettern": 1340,
  "newspaper": 1341,
  "parking": 1342,
  "prepares": 1343,
  "rain": 1344,
  "rocky": 1345,
  "safety": 1346,
  "same": 1347,
  "stra@@": 1348,
  "su@@": 1349,
  "swinging": 1350,
  "unten": 1351,
  "waves": 1352,
  "zen": 1353,
  "außerhalb": 1354,
  "bucket": 1355,
  "bärtiger": 1356,
  "conversation": 1357,
  "costumes": 1358,
  "cra@@": 1359,
  "different": 1360,
  "drinks": 1361,
  "fri@@": 1362,
  "gather": 1363,
  "gemüse": 1364,
  "gloves": 1365,
  "hi@@": 1366,
  "hot": 1367,
  "indian": 1368,
  "lachen": 1369,
  "mat@@": 1370,
  "ms": 1371,
  "pfad": 1372,
  "practicing": 1373,
  "tennisball": 1374,
  "tür": 1375,
  "bau@@": 1376,
  "blumen@@": 1377,
  "bunch": 1378,
  "can": 1379,
  "cement": 1380,
  "cht": 1381,
  "ci@@": 1382,
  "cleaning": 1383,
  "competition": 1384,
  "dass": 1385,
  "elt": 1386,
  "greift": 1387,
  "kleidern": 1388,
  "kommt": 1389,
  "ladder": 1390,
  "lan@@": 1391,
  "listening": 1392,
  "nacht": 1393,
  "pass": 1394,
  "roof": 1395,
  "scene": 1396,
  "schwarz-weißer": 1397,
  "skateboarding": 1398,
  "snowboard": 1399,
  "tie": 1400,
  "u-bahn": 1401,
  "y-@@": 1402,
  "blanket": 1403,
  "blaues": 1404,
  "cu@@": 1405,
  "gelbe": 1406,
  "hold": 1407,
  "items": 1408,
  "ki@@": 1409,
  "lin@@": 1410,
  "musiker": 1411,
  "männliche": 1412,
  "onlookers": 1413,
  "reden": 1414,
  "staring": 1415,
  "surft": 1416,
  "t-@@": 1417,
  "wait": 1418,
  "wet": 1419,
  "audience": 1420,
  "aufschrift": 1421,
  "balloon": 1422,
  "bicycles": 1423,
  "cafe": 1424,
  "desk": 1425,
  "display": 1426,
  "durch@@": 1427,
  "empty": 1428,
  "fotografiert": 1429,
  "geh@@": 1430,
  "gelbem": 1431,
  "giving": 1432,
  "go@@": 1433,
  "hammer": 1434,
  "hilft": 1435,
  "il@@": 1436,
  "king": 1437,
  "konzert": 1438,
  "ks": 1439,
  "lawn": 1440,
  "meal": 1441,
  "mu@@": 1442,
  "no@@": 1443,
  "pile": 1444,
  "railing": 1445,
  "schwarz-@@": 1446,
  "skifahrer": 1447,
  "stop": 1448,
  "streckt": 1449,
  "zi@@": 1450,
  "basketballspieler": 1451,
  "beiden": 1452,
  "bird": 1453,
  "brunnen": 1454,
  "country": 1455,
  "cre@@": 1456,
  "flo@@": 1457,
  "gets": 1458,
  "leaps": 1459,
  "lichen": 1460,
  "licher": 1461,
  "man@@": 1462,
  "match": 1463,
  "military": 1464,
  "pf@@": 1465,
  "schlagen": 1466,
  "schreibt": 1467,
  "sonnenuntergang": 1468,
  "städtischen": 1469,
  "t-shirts": 1470,
  "ufer": 1471,
  "win@@": 1472,
  "arbeit": 1473,
  "bowl": 1474,
  "cher": 1475,
  "damen": 1476,
  "eis": 1477,
  "erin": 1478,
  "gathering": 1479,
  "golf": 1480,
  "haare": 1481,
  "herr": 1482,
  "hin@@": 1483,
  "leine": 1484,
  "pier": 1485,
  "pointing": 1486,
  "schnee@@": 1487,
  "sing": 1488,
  "sliding": 1489,
  "sports": 1490,
  "surfing": 1491,
  "tischen": 1492,
  "umgebung": 1493,
  "vegetables": 1494,
  "waren": 1495,
  "wedding": 1496,
  "überquert": 1497,
  "before": 1498,
  "chasing": 1499,
  "class": 1500,
  "competing": 1501,
  "dra@@": 1502,
  "eimer": 1503,
  "facing": 1504,
  "feet": 1505,
  "fisch": 1506,
  "gegend": 1507,
  "gelb": 1508,
  "gerät": 1509,
  "gu@@": 1510,
  "jacken": 1511,
  "kan@@": 1512,
  "ku@@": 1513,
  "nacktem": 1514,
  "polizisten": 1515,
  "streets": 1516,
  "ungs@@": 1517,
  "versammeln": 1518,
  "zer@@": 1519,
  "ated": 1520,
  "basket": 1521,
  "blonder": 1522,
  "bre@@": 1523,
  "dern": 1524,
  "erwachsenen": 1525,
  "fahrer": 1526,
  "gestreiftem": 1527,
  "getränk": 1528,
  "gs": 1529,
  "handschuhen": 1530,
  "helmets": 1531,
  "huge": 1532,
  "ke@@": 1533,
  "lights": 1534,
  "mask": 1535,
  "pan@@": 1536,
  "plate": 1537,
  "platform": 1538,
  "polizist": 1539,
  "ren@@": 1540,
  "schuhe": 1541,
  "speaking": 1542,
  "sprechen": 1543,
  "uniformen": 1544,
  "vater": 1545,
  "zimmer": 1546,
  "block": 1547,
  "bride": 1548,
  "classroom": 1549,
  "el": 1550,
  "garten": 1551,
  "ging": 1552,
  "glas": 1553,
  "leeren": 1554,
  "lesen": 1555,
  "low": 1556,
  "roll@@": 1557,
  "rot-@@": 1558,
  "s-@@": 1559,
  "silver": 1560,
  "skier": 1561,
  "tattoo": 1562,
  "tries": 1563,
  "ying": 1564,
  "ziehen": 1565,
  "alley": 1566,
  "anzügen": 1567,
  "badeanzug": 1568,
  "climbs": 1569,
  "club": 1570,
  "du@@": 1571,
  "father": 1572,
  "flie@@": 1573,
  "genießen": 1574,
  "h": 1575,
  "kuchen": 1576,
  "ping": 1577,
  "place": 1578,
  "purse": 1579,
  "seen": 1580,
  "setzt": 1581,
  "sings": 1582,
  "ster@@": 1583,
  "stiefeln": 1584,
  "traditional": 1585,
  "tricks": 1586,
  "tro@@": 1587,
  "tu@@": 1588,
  "waits": 1589,
  "4": 1590,
  "animal": 1591,
  "arena": 1592,
  "asiatischen": 1593,
  "break": 1594,
  "counter": 1595,
  "d-@@": 1596,
  "em@@": 1597,
  "f": 1598,
  "fighting": 1599,
  "gel@@": 1600,
  "gelbes": 1601,
  "har@@": 1602,
  "haufen": 1603,
  "jagt": 1604,
  "kissing": 1605,
  "musicians": 1606,
  "pu@@": 1607,
  "rail": 1608,
  "regen": 1609,
  "screen": 1610,
  "sort": 1611,
  "spe@@": 1612,
  "urban": 1613,
  "ure": 1614,
  "was": 1615,
  "york": 1616,
  "abge@@": 1617,
  "alle": 1618,
  "braut": 1619,
  "deck": 1620,
  "ded": 1621,
  "fahrrad@@": 1622,
  "fell": 1623,
  "females": 1624,
  "feuer": 1625,
  "ft": 1626,
  "gekleideten": 1627,
  "happy": 1628,
  "inmitten": 1629,
  "je@@": 1630,
  "jo@@": 1631,
  "kaufen": 1632,
  "kl@@": 1633,
  "kunst@@": 1634,
  "landschaft": 1635,
  "maske": 1636,
  "men@@": 1637,
  "netz": 1638,
  "obst": 1639,
  "ohne": 1640,
  "op@@": 1641,
  "runner": 1642,
  "sch": 1643,
  "schlagzeug": 1644,
  "schwimmen": 1645,
  "singen": 1646,
  "site": 1647,
  "skating": 1648,
  "sm@@": 1649,
  "soldaten": 1650,
  "stroller": 1651,
  "studio": 1652,
  "verschiedene": 1653,
  "wobei": 1654,
  "arme": 1655,
  "blo@@": 1656,
  "braunem": 1657,
  "business": 1658,
  "dreht": 1659,
  "ere": 1660,
  "fans": 1661,
  "grauem": 1662,
  "grüne": 1663,
  "hole": 1664,
  "kneeling": 1665,
  "kt": 1666,
  "lap": 1667,
  "motor@@": 1668,
  "parkplatz": 1669,
  "pause": 1670,
  "r": 1671,
  "regenschirm": 1672,
  "riesigen": 1673,
  "schutzhelm": 1674,
  "schwingt": 1675,
  "scooter": 1676,
  "shoulder": 1677,
  "starrt": 1678,
  "stein": 1679,
  "sto@@": 1680,
  "sunset": 1681,
  "talk": 1682,
  "taschen": 1683,
  "throw": 1684,
  "walkway": 1685,
  "wellen": 1686,
  "writing": 1687,
  "anderes": 1688,
  "attempting": 1689,
  "bald": 1690,
  "bergen": 1691,
  "blau-@@": 1692,
  "blowing": 1693,
  "che@@": 1694,
  "christmas": 1695,
  "fallen": 1696,
  "fast": 1697,
  "flasche": 1698,
  "gebäuden": 1699,
  "gemeinsam": 1700,
  "ir@@": 1701,
  "keyboard": 1702,
  "kinderwagen": 1703,
  "kon@@": 1704,
  "min@@": 1705,
  "motorradfahrer": 1706,
  "ner": 1707,
  "ol@@": 1708,
  "per@@": 1709,
  "sches": 1710,
  "schwarzes": 1711,
  "sohn": 1712,
  "violin": 1713,
  "waving": 1714,
  "älteren": 1715,
  "baustelle": 1716,
  "ces": 1717,
  "chinese": 1718,
  "cht@@": 1719,
  "cking": 1720,
  "cks": 1721,
  "course": 1722,
  "ender": 1723,
  "farben": 1724,
  "finger": 1725,
  "gan@@": 1726,
  "gebiet": 1727,
  "grünes": 1728,
  "hal@@": 1729,
  "hört": 1730,
  "ine": 1731,
  "jugendlicher": 1732,
  "kappe": 1733,
  "kunden": 1734,
  "life": 1735,
  "lächelnd": 1736,
  "made": 1737,
  "offenen": 1738,
  "overlooking": 1739,
  "robe": 1740,
  "schul@@": 1741,
  "signs": 1742,
  "straßen": 1743,
  "straßenecke": 1744,
  "straßenrand": 1745,
  "stunt": 1746,
  "tables": 1747,
  "ul@@": 1748,
  "video": 1749,
  "war@@": 1750,
  "wo": 1751,
  "artist": 1752,
  "aufge@@": 1753,
  "baum@@": 1754,
  "blond-haired": 1755,
  "bra@@": 1756,
  "bubbles": 1757,
  "bun@@": 1758,
  "che": 1759,
  "dieser": 1760,
  "fel@@": 1761,
  "fo@@": 1762,
  "hau@@": 1763,
  "hin": 1764,
  "lu@@": 1765,
  "mikrophon": 1766,
  "mirror": 1767,
  "officer": 1768,
  "orangefarbener": 1769,
  "pflanzen": 1770,
  "pinkfarbenen": 1771,
  "says": 1772,
  "schoß": 1773,
  "schw@@": 1774,
  "so": 1775,
  "sun@@": 1776,
  "tasse": 1777,
  "ug@@": 1778,
  "umarmt": 1779,
  "van": 1780,
  "vogel": 1781,
  "zurück": 1782,
  "arbeit@@": 1783,
  "balloons": 1784,
  "baseball@@": 1785,
  "bro@@": 1786,
  "cal": 1787,
  "cked": 1788,
  "close": 1789,
  "cor@@": 1790,
  "dar@@": 1791,
  "dunkelhäutiger": 1792,
  "fixing": 1793,
  "giant": 1794,
  "gleich": 1795,
  "gut": 1796,
  "hoodie": 1797,
  "ja@@": 1798,
  "krawatte": 1799,
  "leans": 1800,
  "liches": 1801,
  "putzt": 1802,
  "renn@@": 1803,
  "schlitten": 1804,
  "schreibtisch": 1805,
  "ses": 1806,
  "softball": 1807,
  "sonnen@@": 1808,
  "square": 1809,
  "stadt@@": 1810,
  "tet": 1811,
  "wal@@": 1812,
  "ad@@": 1813,
  "alone": 1814,
  "ausge@@": 1815,
  "berg@@": 1816,
  "brunette": 1817,
  "ched": 1818,
  "collar": 1819,
  "ders": 1820,
  "faces": 1821,
  "fen": 1822,
  "foreground": 1823,
  "gar@@": 1824,
  "gym": 1825,
  "helping": 1826,
  "karate": 1827,
  "kurz": 1828,
  "leather": 1829,
  "leg": 1830,
  "lkw": 1831,
  "ment": 1832,
  "over@@": 1833,
  "pin@@": 1834,
  "pitcher": 1835,
  "repariert": 1836,
  "sandalen": 1837,
  "schatten": 1838,
  "schlange": 1839,
  "schläger": 1840,
  "skate": 1841,
  "swim": 1842,
  "teenage": 1843,
  "tw@@": 1844,
  "umbrellas": 1845,
  "ung@@": 1846,
  "vordergrund": 1847,
  "weiß-@@": 1848,
  "wheel": 1849,
  "zt": 1850,
  "asleep": 1851,
  "ation": 1852,
  "beugt": 1853,
  "brightly": 1854,
  "dancers": 1855,
  "eh@@": 1856,
  "electric": 1857,
  "enjoy": 1858,
  "fahrradfahrer": 1859,
  "fahrrädern": 1860,
  "festival": 1861,
  "flugzeug": 1862,
  "ganz": 1863,
  "gegeneinander": 1864,
  "gekleidetes": 1865,
  "headphones": 1866,
  "hängen": 1867,
  "kurzer": 1868,
  "legs": 1869,
  "licht": 1870,
  "meat": 1871,
  "mud": 1872,
  "podium": 1873,
  "poster": 1874,
  "snow@@": 1875,
  "stadium": 1876,
  "ste": 1877,
  "sticks": 1878,
  "sts": 1879,
  "voll": 1880,
  "vollen": 1881,
  "wel@@": 1882,
  "wo@@": 1883,
  "ws": 1884,
  "among": 1885,
  "asiatisches": 1886,
  "bahn@@": 1887,
  "balanciert": 1888,
  "bat": 1889,
  "bedeckt": 1890,
  "beg@@": 1891,
  "diving": 1892,
  "dr@@": 1893,
  "dri@@": 1894,
  "einkaufswagen": 1895,
  "erten": 1896,
  "falling": 1897,
  "football-spieler": 1898,
  "footballspieler": 1899,
  "goal": 1900,
  "gro@@": 1901,
  "jemandem": 1902,
  "len": 1903,
  "loch": 1904,
  "lächelnde": 1905,
  "makes": 1906,
  "office": 1907,
  "officers": 1908,
  "passing": 1909,
  "pferden": 1910,
  "photographer": 1911,
  "ppen": 1912,
  "reiten": 1913,
  "sandals": 1914,
  "schiedsrichter": 1915,
  "schüler": 1916,
  "schüssel": 1917,
  "skater": 1918,
  "skiing": 1919,
  "spielzeug@@": 1920,
  "squ@@": 1921,
  "ssi@@": 1922,
  "steigen": 1923,
  "swings": 1924,
  "toys": 1925,
  "verkaufen": 1926,
  "washing": 1927,
  "wears": 1928,
  "är@@": 1929,
  "äu@@": 1930,
  "angel@@": 1931,
  "badehose": 1932,
  "barefoot": 1933,
  "bs": 1934,
  "chi@@": 1935,
  "church": 1936,
  "cker": 1937,
  "dark-haired": 1938,
  "dessen": 1939,
  "dirty": 1940,
  "doorway": 1941,
  "erde": 1942,
  "fall": 1943,
  "flip": 1944,
  "friend": 1945,
  "fällt": 1946,
  "gegenüber": 1947,
  "heads": 1948,
  "held": 1949,
  "hiking": 1950,
  "höhe": 1951,
  "klein@@": 1952,
  "kreis": 1953,
  "künstler": 1954,
  "küsst": 1955,
  "males": 1956,
  "multicolored": 1957,
  "musical": 1958,
  "par@@": 1959,
  "ph@@": 1960,
  "row": 1961,
  "singer": 1962,
  "stre@@": 1963,
  "ur": 1964,
  "weibliche": 1965,
  "winkt": 1966,
  "ze": 1967,
  "zeit": 1968,
  "(": 1969,
  "accordion": 1970,
  "ating": 1971,
  "bekleidung": 1972,
  "café": 1973,
  "canoe": 1974,
  "chef": 1975,
  "cloth": 1976,
  "cur@@": 1977,
  "drawing": 1978,
  "ell@@": 1979,
  "felswand": 1980,
  "gla@@": 1981,
  "gre@@": 1982,
  "halsband": 1983,
  "heben": 1984,
  "hellbrauner": 1985,
  "here": 1986,
  "klassenzimmer": 1987,
  "lauf@@": 1988,
  "leash": 1989,
  "lt": 1990,
  "mobiltelefon": 1991,
  "move": 1992,
  "ne": 1993,
  "orangefarbenem": 1994,
  "performance": 1995,
  "picking": 1996,
  "reaching": 1997,
  "sachen": 1998,
  "sand@@": 1999,
  "schlag": 2000,
  "schulter": 2001,
  "spiegel": 2002,
  "sport": 2003,
  "strecke": 2004,
  "surfbrett": 2005,
  "throws": 2006,
  "traffic": 2007,
  "ungen": 2008,
  "ves": 2009,
  "z": 2010,
  "zeichen": 2011,
  "!": 2012,
  ")": 2013,
  "5": 2014,
  "auto@@": 2015,
  "ball@@": 2016,
  "beige": 2017,
  "belebte": 2018,
  "below": 2019,
  "bri@@": 2020,
  "bt": 2021,
  "bäume": 2022,
  "daughter": 2023,
  "digging": 2024,
  "ecke": 2025,
  "fer": 2026,
  "feuer@@": 2027,
  "fleisch": 2028,
  "gerüst": 2029,
  "groß@@": 2030,
  "handstand": 2031,
  "helmen": 2032,
  "iert": 2033,
  "kanu": 2034,
  "kar@@": 2035,
  "land@@": 2036,
  "lone": 2037,
  "members": 2038,
  "mon@@": 2039,
  "oberteilen": 2040,
  "overall": 2041,
  "overalls": 2042,
  "per": 2043,
  "plastik@@": 2044,
  "relaxing": 2045,
  "run@@": 2046,
  "schaufel": 2047,
  "shallow": 2048,
  "spar@@": 2049,
  "steine": 2050,
  "sting": 2051,
  "tanz": 2052,
  "telefon": 2053,
  "tion": 2054,
  "tz@@": 2055,
  "unbefestigten": 2056,
  "well": 2057,
  "wor@@": 2058,
  "wurf": 2059,
  "atop": 2060,
  "ats": 2061,
  "aussieht": 2062,
  "bade@@": 2063,
  "bein": 2064,
  "ben@@": 2065,
  "bicyclist": 2066,
  "cat": 2067,
  "catches": 2068,
  "catching": 2069,
  "ct@@": 2070,
  "davor": 2071,
  "deep": 2072,
  "durchs": 2073,
  "fall@@": 2074,
  "ff@@": 2075,
  "foot": 2076,
  "garden": 2077,
  "gives": 2078,
  "gucken": 2079,
  "hinter@@": 2080,
  "hugging": 2081,
  "kajak": 2082,
  "kick": 2083,
  "leuchtend": 2084,
  "me": 2085,
  "microscope": 2086,
  "mm@@": 2087,
  "moving": 2088,
  "nach@@": 2089,
  "onen": 2090,
  "passes": 2091,
  "redet": 2092,
  "rolling": 2093,
  "schuh": 2094,
  "seines": 2095,
  "shovel": 2096,
  "steigt": 2097,
  "tre@@": 2098,
  "ved": 2099,
  "yo@@": 2100,
  "zeigen": 2101,
  "ß@@": 2102,
  "app@@": 2103,
  "ce@@": 2104,
  "climb": 2105,
  "dreadlocks": 2106,
  "drum": 2107,
  "ene": 2108,
  "eri@@": 2109,
  "flies": 2110,
  "fun": 2111,
  "gate": 2112,
  "gepflasterten": 2113,
  "hauses": 2114,
  "hel@@": 2115,
  "hunden": 2116,
  "küssen": 2117,
  "lab": 2118,
  "leaping": 2119,
  "makeup": 2120,
  "mer@@": 2121,
  "mit@@": 2122,
  "musik@@": 2123,
  "ort": 2124,
  "paved": 2125,
  "pen": 2126,
  "pping": 2127,
  "prepare": 2128,
  "rand": 2129,
  "rennstrecke": 2130,
  "resting": 2131,
  "schlauch": 2132,
  "schnauze": 2133,
  "sed": 2134,
  "shows": 2135,
  "sled": 2136,
  "sleeps": 2137,
  "spaß": 2138,
  "stadion": 2139,
  "sweeping": 2140,
  "verschiedenen": 2141,
  "x": 2142,
  "ze@@": 2143,
  "ans": 2144,
  "asiatisch": 2145,
  "basketball@@": 2146,
  "books": 2147,
  "braun": 2148,
  "coats": 2149,
  "cold": 2150,
  "conversing": 2151,
  "cting": 2152,
  "desert": 2153,
  "fahrt": 2154,
  "farbenfrohen": 2155,
  "form@@": 2156,
  "formal": 2157,
  "fre@@": 2158,
  "fu@@": 2159,
  "gelegt": 2160,
  "grasbewachsenen": 2161,
  "gri@@": 2162,
  "gten": 2163,
  "igen": 2164,
  "individuals": 2165,
  "irgend@@": 2166,
  "kai": 2167,
  "lastwagen": 2168,
  "len@@": 2169,
  "lies": 2170,
  "lilafarbenen": 2171,
  "lots": 2172,
  "mikroskop": 2173,
  "museum": 2174,
  "männlicher": 2175,
  "photograph": 2176,
  "pond": 2177,
  "puck": 2178,
  "reiter": 2179,
  "ringen": 2180,
  "schultern": 2181,
  "schönen": 2182,
  "sculpture": 2183,
  "seifenblasen": 2184,
  "splashing": 2185,
  "steinen": 2186,
  "tanktop": 2187,
  "teeth": 2188,
  "teller": 2189,
  "these": 2190,
  "tier": 2191,
  "tochter": 2192,
  "trunks": 2193,
  "upside": 2194,
  "ut": 2195,
  "ve@@": 2196,
  "ver": 2197,
  "wear": 2198,
  "wettkampf": 2199,
  "x@@": 2200,
  "akkordeon": 2201,
  "bis": 2202,
  "blatt": 2203,
  "cam@@": 2204,
  "carnival": 2205,
  "chern": 2206,
  "closed": 2207,
  "cro@@": 2208,
  "customers": 2209,
  "dd@@": 2210,
  "det": 2211,
  "ent": 2212,
  "fläche": 2213,
  "freunde": 2214,
  "fußballspiel": 2215,
  "gang": 2216,
  "golden": 2217,
  "grün-@@": 2218,
  "gun": 2219,
  "how": 2220,
  "jogging": 2221,
  "katze": 2222,
  "kauft": 2223,
  "kirche": 2224,
  "klippe": 2225,
  "kocht": 2226,
  "küste": 2227,
  "lau@@": 2228,
  "plan@@": 2229,
  "plants": 2230,
  "points": 2231,
  "regen@@": 2232,
  "rest": 2233,
  "round": 2234,
  "spielfeld": 2235,
  "student": 2236,
  "stü@@": 2237,
  "telescope": 2238,
  "tire": 2239,
  "town": 2240,
  "underneath": 2241,
  "violetten": 2242,
  "wir@@": 2243,
  "wrestling": 2244,
  "än@@": 2245,
  "ate": 2246,
  "aussehende": 2247,
  "bedient": 2248,
  "bemalt": 2249,
  "bla@@": 2250,
  "braun-weißer": 2251,
  "brett": 2252,
  "bur@@": 2253,
  "cane": 2254,
  "center": 2255,
  "cheerleaders": 2256,
  "cke": 2257,
  "cut": 2258,
  "cyclist": 2259,
  "dances": 2260,
  "dinner": 2261,
  "eat": 2262,
  "ers@@": 2263,
  "farbenen": 2264,
  "freunden": 2265,
  "gegnerischen": 2266,
  "grauer": 2267,
  "hellen": 2268,
  "hiker": 2269,
  "including": 2270,
  "innen": 2271,
  "inter@@": 2272,
  "karren": 2273,
  "kel@@": 2274,
  "kommen": 2275,
  "local": 2276,
  "mat": 2277,
  "nur": 2278,
  "ober@@": 2279,
  "opposing": 2280,
  "plane": 2281,
  "project": 2282,
  "schaukelt": 2283,
  "sel@@": 2284,
  "ser": 2285,
  "shoe": 2286,
  "shoulders": 2287,
  "teich": 2288,
  "themselves": 2289,
  "unterwegs": 2290,
  "waters": 2291,
  "without": 2292,
  "wohn@@": 2293,
  "ant": 2294,
  "arti@@": 2295,
  "beleuchteten": 2296,
  "bil@@": 2297,
  "booth": 2298,
  "bringt": 2299,
  "circle": 2300,
  "crosswalk": 2301,
  "crying": 2302,
  "damit": 2303,
  "driver": 2304,
  "ely": 2305,
  "entspannt": 2306,
  "fight": 2307,
  "flaggen": 2308,
  "gasse": 2309,
  "geige": 2310,
  "hol@@": 2311,
  "holt": 2312,
  "hunde@@": 2313,
  "infant": 2314,
  "instrumente": 2315,
  "instrumenten": 2316,
  "jockey": 2317,
  "kampf@@": 2318,
  "kopfhörer": 2319,
  "langem": 2320,
  "lea@@": 2321,
  "lie@@": 2322,
  "mannschaften": 2323,
  "matching": 2324,
  "moped": 2325,
  "mural": 2326,
  "opening": 2327,
  "parkbank": 2328,
  "pipe": 2329,
  "produce": 2330,
  "pulled": 2331,
  "racket": 2332,
  "reifen": 2333,
  "runners": 2334,
  "sam@@": 2335,
  "schneiden": 2336,
  "schutzhelmen": 2337,
  "schwimmbrille": 2338,
  "seat": 2339,
  "ser@@": 2340,
  "sieben": 2341,
  "stehenden": 2342,
  "straw": 2343,
  "taken": 2344,
  "theke": 2345,
  "ton@@": 2346,
  "trampolin": 2347,
  "trampoline": 2348,
  "tuch": 2349,
  "umarmen": 2350,
  "ven": 2351,
  "wooded": 2352,
  "zusammen@@": 2353,
  "1@@": 2354,
  "all@@": 2355,
  "athlete": 2356,
  "attempts": 2357,
  "ban@@": 2358,
  "band@@": 2359,
  "becher": 2360,
  "berge": 2361,
  "bicyclists": 2362,
  "bl@@": 2363,
  "ching": 2364,
  "covering": 2365,
  "cted": 2366,
  "dies": 2367,
  "einge@@": 2368,
  "ell": 2369,
  "enen": 2370,
  "ens": 2371,
  "far@@": 2372,
  "fe": 2373,
  "fle@@": 2374,
  "fol@@": 2375,
  "frei@@": 2376,
  "gh@@": 2377,
  "gymnast": 2378,
  "hüpft": 2379,
  "itt@@": 2380,
  "jongliert": 2381,
  "kes": 2382,
  "kor@@": 2383,
  "lauf": 2384,
  "lift": 2385,
  "nose": 2386,
  "not": 2387,
  "objekt": 2388,
  "ors": 2389,
  "ous": 2390,
  "performer": 2391,
  "picnic": 2392,
  "schlamm": 2393,
  "scht": 2394,
  "sewing": 2395,
  "sha@@": 2396,
  "shed": 2397,
  "skiern": 2398,
  "skulptur": 2399,
  "sli@@": 2400,
  "sol@@": 2401,
  "sor@@": 2402,
  "stuffed": 2403,
  "surface": 2404,
  "teenagers": 2405,
  "ters": 2406,
  "trash": 2407,
  "tur@@": 2408,
  "tänzer": 2409,
  "u": 2410,
  "umge@@": 2411,
  "verkäufer": 2412,
  "vers@@": 2413,
  "verwendet": 2414,
  "wei@@": 2415,
  "and@@": 2416,
  "arm@@": 2417,
  "ast": 2418,
  "auftritt": 2419,
  "balcony": 2420,
  "barfuß": 2421,
  "bauen": 2422,
  "bei@@": 2423,
  "bilder": 2424,
  "blouse": 2425,
  "bläst": 2426,
  "boxes": 2427,
  "chases": 2428,
  "cow": 2429,
  "dancer": 2430,
  "dre@@": 2431,
  "dunkler": 2432,
  "eingang": 2433,
  "fahnen": 2434,
  "feldweg": 2435,
  "fern": 2436,
  "fro@@": 2437,
  "ft@@": 2438,
  "fäl@@": 2439,
  "geben": 2440,
  "glas@@": 2441,
  "goes": 2442,
  "grillt": 2443,
  "help": 2444,
  "hikers": 2445,
  "himself": 2446,
  "hoop": 2447,
  "hören": 2448,
  "kaffee": 2449,
  "kn@@": 2450,
  "kü@@": 2451,
  "lays": 2452,
  "linie": 2453,
  "links": 2454,
  "lunch": 2455,
  "lächelnder": 2456,
  "metall": 2457,
  "moment": 2458,
  "oriental": 2459,
  "pedestrians": 2460,
  "projekt": 2461,
  "pushes": 2462,
  "raft": 2463,
  "rechts": 2464,
  "reparieren": 2465,
  "rollerblades": 2466,
  "rugby": 2467,
  "ruht": 2468,
  "sandy": 2469,
  "schießt": 2470,
  "schn@@": 2471,
  "sitzende": 2472,
  "skis": 2473,
  "slope": 2474,
  "son@@": 2475,
  "spa@@": 2476,
  "spritzt": 2477,
  "sse": 2478,
  "style": 2479,
  "taxi": 2480,
  "tex@@": 2481,
  "third": 2482,
  "use": 2483,
  "veranda": 2484,
  "wing": 2485,
  "wür@@": 2486,
  "ali@@": 2487,
  "amerikanische": 2488,
  "asiate": 2489,
  "auch": 2490,
  "aussehender": 2491,
  "bedeckten": 2492,
  "beinen": 2493,
  "bekommt": 2494,
  "bent": 2495,
  "berührt": 2496,
  "bogen": 2497,
  "chen@@": 2498,
  "clear": 2499,
  "cowboyhut": 2500,
  "cs": 2501,
  "dan@@": 2502,
  "device": 2503,
  "dun@@": 2504,
  "dunkel@@": 2505,
  "dunkelhäutige": 2506,
  "farbe": 2507,
  "fotografieren": 2508,
  "fra@@": 2509,
  "garage": 2510,
  "geld": 2511,
  "gem": 2512,
  "geschlossenen": 2513,
  "goalie": 2514,
  "haar@@": 2515,
  "handtasche": 2516,
  "hellblauen": 2517,
  "hockt": 2518,
  "hula": 2519,
  "indoor": 2520,
  "ite": 2521,
  "kopftuch": 2522,
  "log": 2523,
  "london": 2524,
  "mahlzeit": 2525,
  "nase": 2526,
  "neck": 2527,
  "ot@@": 2528,
  "piano": 2529,
  "pit@@": 2530,
  "position": 2531,
  "pri@@": 2532,
  "pulls": 2533,
  "puts": 2534,
  "rin@@": 2535,
  "sal@@": 2536,
  "san@@": 2537,
  "schau@@": 2538,
  "schla@@": 2539,
  "schwimmer": 2540,
  "schüttelt": 2541,
  "sco@@": 2542,
  "seil@@": 2543,
  "seven": 2544,
  "shooting": 2545,
  "sitz@@": 2546,
  "speaks": 2547,
  "sportler": 2548,
  "springbrunnen": 2549,
  "staircase": 2550,
  "stern": 2551,
  "stift": 2552,
  "stoff": 2553,
  "sänger": 2554,
  "taucht": 2555,
  "tennis@@": 2556,
  "tigen": 2557,
  "tops": 2558,
  "turn": 2559,
  "ty": 2560,
  "verfolgt": 2561,
  "wandert": 2562,
  "werbung": 2563,
  "wüste": 2564,
  "ati@@": 2565,
  "banner": 2566,
  "behälter": 2567,
  "blocks": 2568,
  "boats": 2569,
  "bringen": 2570,
  "ction": 2571,
  "deut@@": 2572,
  "drives": 2573,
  "end@@": 2574,
  "enjoys": 2575,
  "evening": 2576,
  "feier": 2577,
  "fer@@": 2578,
  "fil@@": 2579,
  "fin@@": 2580,
  "geln": 2581,
  "gentlemen": 2582,
  "gers": 2583,
  "gezogen": 2584,
  "gold@@": 2585,
  "gr@@": 2586,
  "graben": 2587,
  "grocery": 2588,
  "heavy": 2589,
  "hü@@": 2590,
  "ie@@": 2591,
  "ing@@": 2592,
  "innen@@": 2593,
  "iten": 2594,
  "kampf": 2595,
  "kinder@@": 2596,
  "linken": 2597,
  "lö@@": 2598,
  "marching": 2599,
  "mänteln": 2600,
  "native": 2601,
  "nice": 2602,
  "nt": 2603,
  "personengruppe": 2604,
  "pot": 2605,
  "pra@@": 2606,
  "rad@@": 2607,
  "ran@@": 2608,
  "reinigt": 2609,
  "saxophone": 2610,
  "scha@@": 2611,
  "sea@@": 2612,
  "shaking": 2613,
  "skateboards": 2614,
  "strand@@": 2615,
  "swims": 2616,
  "teilen": 2617,
  "tennisspieler": 2618,
  "teppich": 2619,
  "terrasse": 2620,
  "tr@@": 2621,
  "tt@@": 2622,
  "va@@": 2623,
  "vorbei@@": 2624,
  "wein@@": 2625,
  "wetsuit": 2626,
  "wettbewerb": 2627,
  "zwei@@": 2628,
  "äh@@": 2629,
  "überfüllten": 2630,
  "3@@": 2631,
  "5@@": 2632,
  "age": 2633,
  "anzu@@": 2634,
  "asiaten": 2635,
  "asiatin": 2636,
  "bat@@": 2637,
  "bel@@": 2638,
  "bli@@": 2639,
  "brown-haired": 2640,
  "can@@": 2641,
  "cha@@": 2642,
  "cloudy": 2643,
  "diesem": 2644,
  "ea@@": 2645,
  "endes": 2646,
  "fahrräder": 2647,
  "fair": 2648,
  "fan@@": 2649,
  "felsigen": 2650,
  "feuerwehr@@": 2651,
  "ffen": 2652,
  "fingers": 2653,
  "football@@": 2654,
  "foreign": 2655,
  "garb": 2656,
  "geländemotorrad": 2657,
  "hangs": 2658,
  "heraus": 2659,
  "hinab": 2660,
  "jean": 2661,
  "kayak": 2662,
  "ked": 2663,
  "ker@@": 2664,
  "khaki": 2665,
  "kicks": 2666,
  "kissen": 2667,
  "koch": 2668,
  "kten": 2669,
  "laundry": 2670,
  "lederjacke": 2671,
  "ledge": 2672,
  "lei@@": 2673,
  "let": 2674,
  "moves": 2675,
  "mp@@": 2676,
  "muster": 2677,
  "müll": 2678,
  "ori@@": 2679,
  "part": 2680,
  "pe": 2681,
  "ped": 2682,
  "pinkfarbenem": 2683,
  "pol@@": 2684,
  "porch": 2685,
  "pouring": 2686,
  "protective": 2687,
  "puddle": 2688,
  "red-haired": 2689,
  "robes": 2690,
  "sack": 2691,
  "salto": 2692,
  "sandwich": 2693,
  "schießen": 2694,
  "shaving": 2695,
  "sheet": 2696,
  "ship": 2697,
  "spi@@": 2698,
  "spiels": 2699,
  "sses": 2700,
  "start": 2701,
  "steep": 2702,
  "stell@@": 2703,
  "stream": 2704,
  "streifen": 2705,
  "sub@@": 2706,
  "tanz@@": 2707,
  "th": 2708,
  "tige": 2709,
  "tracks": 2710,
  "traditioneller": 2711,
  "type": 2712,
  "tzen": 2713,
  "umzug": 2714,
  "water@@": 2715,
  "waterfall": 2716,
  "winter@@": 2717,
  "wrapped": 2718,
  "zeichnet": 2719,
  "ßen": 2720,
  "öffnet": 2721,
  "üben": 2722,
  "2@@": 2723,
  ":": 2724,
  "airplane": 2725,
  "attached": 2726,
  "bach": 2727,
  "backyard": 2728,
  "bad": 2729,
  "bal@@": 2730,
  "birds": 2731,
  "blätter": 2732,
  "boards": 2733,
  "boun@@": 2734,
  "bread": 2735,
  "checking": 2736,
  "cheerleader": 2737,
  "ckten": 2738,
  "clo@@": 2739,
  "colors": 2740,
  "com@@": 2741,
  "ct": 2742,
  "defen@@": 2743,
  "denim": 2744,
  "dieses": 2745,
  "dro@@": 2746,
  "eye": 2747,
  "fest@@": 2748,
  "flug@@": 2749,
  "ful": 2750,
  "gesch@@": 2751,
  "gießt": 2752,
  "gleitet": 2753,
  "hellbraunen": 2754,
  "hl@@": 2755,
  "hockey@@": 2756,
  "hu@@": 2757,
  "hun@@": 2758,
  "id": 2759,
  "kann": 2760,
  "karte": 2761,
  "kel": 2762,
  "kerl": 2763,
  "kiss": 2764,
  "luggage": 2765,
  "mor@@": 2766,
  "mound": 2767,
  "nachdem": 2768,
  "nassen": 2769,
  "opposite": 2770,
  "ops": 2771,
  "paddling": 2772,
  "palm": 2773,
  "pen@@": 2774,
  "pferde": 2775,
  "pfütze": 2776,
  "poles": 2777,
  "polo": 2778,
  "put": 2779,
  "reaches": 2780,
  "red-hair": 2781,
  "rothaarige": 2782,
  "rück@@": 2783,
  "sale": 2784,
  "schirmen": 2785,
  "schnell": 2786,
  "sea": 2787,
  "shoveling": 2788,
  "skirts": 2789,
  "soldiers": 2790,
  "sprin@@": 2791,
  "sters": 2792,
  "stru@@": 2793,
  "tru@@": 2794,
  "try": 2795,
  "untersucht": 2796,
  "verkehr": 2797,
  "vers": 2798,
  "wine": 2799,
  "winterkleidung": 2800,
  "wit@@": 2801,
  "wäscht": 2802,
  "zähne": 2803,
  "&amp;": 2804,
  "allein": 2805,
  "balancing": 2806,
  "balkon": 2807,
  "beieinander": 2808,
  "bikers": 2809,
  "box@@": 2810,
  "braunes": 2811,
  "bullen": 2812,
  "bunte": 2813,
  "but@@": 2814,
  "camouflage": 2815,
  "clean": 2816,
  "coach": 2817,
  "col@@": 2818,
  "cones": 2819,
  "curb": 2820,
  "dis@@": 2821,
  "dol@@": 2822,
  "ei": 2823,
  "farbener": 2824,
  "flight": 2825,
  "frame": 2826,
  "fun@@": 2827,
  "fuß@@": 2828,
  "fü@@": 2829,
  "gg@@": 2830,
  "hals": 2831,
  "hockeyspieler": 2832,
  "horn": 2833,
  "image": 2834,
  "inflatable": 2835,
  "jerseys": 2836,
  "kickt": 2837,
  "kurve": 2838,
  "laugh": 2839,
  "le-@@": 2840,
  "mal@@": 2841,
  "mel@@": 2842,
  "paddelt": 2843,
  "park@@": 2844,
  "passanten": 2845,
  "pavement": 2846,
  "pfosten": 2847,
  "rä@@": 2848,
  "rädern": 2849,
  "schen@@": 2850,
  "schlafen": 2851,
  "schle@@": 2852,
  "sitzender": 2853,
  "skateboardfahrer": 2854,
  "soldier": 2855,
  "spor@@": 2856,
  "stapel": 2857,
  "stellen": 2858,
  "string": 2859,
  "stä@@": 2860,
  "tan@@": 2861,
  "tongue": 2862,
  "tools": 2863,
  "weitere": 2864,
  "wer@@": 2865,
  "wheelchair": 2866,
  "will": 2867,
  "windows": 2868,
  "wurde": 2869,
  "you": 2870,
  "zunge": 2871,
  "übt": 2872,
  "0@@": 2873,
  "amerikanischen": 2874,
  "ballerina": 2875,
  "becken": 2876,
  "beton": 2877,
  "bmx": 2878,
  "bottom": 2879,
  "bräutigam": 2880,
  "brünette": 2881,
  "bubble": 2882,
  "buying": 2883,
  "büro": 2884,
  "chter": 2885,
  "color": 2886,
  "courtyard": 2887,
  "cowboys": 2888,
  "curly": 2889,
  "cyclists": 2890,
  "derby": 2891,
  "din@@": 2892,
  "eats": 2893,
  "fabric": 2894,
  "farbigen": 2895,
  "floating": 2896,
  "floral": 2897,
  "fresh": 2898,
  "frisch": 2899,
  "fußgänger": 2900,
  "fä@@": 2901,
  "gel": 2902,
  "getränke": 2903,
  "gezeigt": 2904,
  "gräbt": 2905,
  "gs@@": 2906,
  "haariger": 2907,
  "happily": 2908,
  "head@@": 2909,
  "helfen": 2910,
  "juggling": 2911,
  "kampfsport": 2912,
  "koffer": 2913,
  "laptops": 2914,
  "lassen": 2915,
  "laughs": 2916,
  "living": 2917,
  "luftballons": 2918,
  "magazine": 2919,
  "married": 2920,
  "mobile": 2921,
  "motorcycles": 2922,
  "musician": 2923,
  "ned": 2924,
  "ob": 2925,
  "orange-@@": 2926,
  "plant": 2927,
  "ppe": 2928,
  "professional": 2929,
  "radrennen": 2930,
  "railroad": 2931,
  "rasiert": 2932,
  "riders": 2933,
  "rit@@": 2934,
  "santa": 2935,
  "schuh@@": 2936,
  "sees": 2937,
  "sell": 2938,
  "shade": 2939,
  "silhouette": 2940,
  "spray": 2941,
  "ssion": 2942,
  "step": 2943,
  "stool": 2944,
  "summer": 2945,
  "swimsuit": 2946,
  "tafel": 2947,
  "tau@@": 2948,
  "teleskop": 2949,
  "tho@@": 2950,
  "touristen": 2951,
  "tractor": 2952,
  "vie@@": 2953,
  "viel": 2954,
  "vollführt": 2955,
  "walls": 2956,
  "warm": 2957,
  "wer": 2958,
  "wind@@": 2959,
  ".@@": 2960,
  "0": 2961,
  "abzu@@": 2962,
  "acoustic": 2963,
  "air@@": 2964,
  "ami@@": 2965,
  "angelt": 2966,
  "appear": 2967,
  "arbeitskleidung": 2968,
  "backwards": 2969,
  "ballons": 2970,
  "banan@@": 2971,
  "bandanna": 2972,
  "barbecue": 2973,
  "baumstamm": 2974,
  "bel": 2975,
  "benutzen": 2976,
  "ber": 2977,
  "besen": 2978,
  "bewegt": 2979,
  "bucking": 2980,
  "bü@@": 2981,
  "carriage": 2982,
  "cat@@": 2983,
  "cheering": 2984,
  "ckter": 2985,
  "closeup": 2986,
  "darunter": 2987,
  "either": 2988,
  "ery": 2989,
  "fen@@": 2990,
  "fischen": 2991,
  "fl@@": 2992,
  "flip-flops": 2993,
  "form": 2994,
  "garbage": 2995,
  "gelb-@@": 2996,
  "geschirr": 2997,
  "goldenen": 2998,
  "goods": 2999,
  "grau": 3000,
  "groom": 3001,
  "gruppen": 3002,
  "guard": 3003,
  "handtuch": 3004,
  "hellhäutiger": 3005,
  "hinaus": 3006,
  "hinterher": 3007,
  "hochzeit@@": 3008,
  "hotel": 3009,
  "hurdle": 3010,
  "ich": 3011,
  "kante": 3012,
  "kat@@": 3013,
  "kehrt": 3014,
  "kisten": 3015,
  "knee": 3016,
  "kuh": 3017,
  "können": 3018,
  "künst@@": 3019,
  "lebensmittel": 3020,
  "legen": 3021,
  "marketplace": 3022,
  "matte": 3023,
  "multiple": 3024,
  "müll@@": 3025,
  "nap": 3026,
  "neoprenanzug": 3027,
  "pair": 3028,
  "pajamas": 3029,
  "pit": 3030,
  "pizza": 3031,
  "pla@@": 3032,
  "polizei@@": 3033,
  "por@@": 3034,
  "restaurants": 3035,
  "rock@@": 3036,
  "rollstuhl": 3037,
  "runden": 3038,
  "scaffolding": 3039,
  "scheibe": 3040,
  "schreit": 3041,
  "schöne": 3042,
  "scra@@": 3043,
  "shown": 3044,
  "sitzenden": 3045,
  "sized": 3046,
  "socks": 3047,
  "spitze": 3048,
  "stan@@": 3049,
  "straßenkünstler": 3050,
  "sum@@": 3051,
  "surf": 3052,
  "suspended": 3053,
  "touching": 3054,
  "trommel": 3055,
  "tte": 3056,
  "tube": 3057,
  "turnhalle": 3058,
  "v": 3059,
  "vely": 3060,
  "vo@@": 3061,
  "wasserfall": 3062,
  "we": 3063,
  "wischt": 3064,
  "9@@": 3065,
  "acht": 3066,
  "advertisement": 3067,
  "airport": 3068,
  "alleine": 3069,
  "amp": 3070,
  "ang@@": 3071,
  "animals": 3072,
  "aring": 3073,
  "ars": 3074,
  "backpacks": 3075,
  "balken": 3076,
  "baut": 3077,
  "berges": 3078,
  "bling": 3079,
  "blondem": 3080,
  "bow": 3081,
  "braunhaarige": 3082,
  "candy": 3083,
  "caught": 3084,
  "chain": 3085,
  "chinesischen": 3086,
  "climber": 3087,
  "crew": 3088,
  "dining": 3089,
  "direction": 3090,
  "drummer": 3091,
  "dry": 3092,
  "ears": 3093,
  "elling": 3094,
  "entfernt": 3095,
  "escalator": 3096,
  "fal@@": 3097,
  "feiern": 3098,
  "fenced": 3099,
  "fully": 3100,
  "gemälde": 3101,
  "german": 3102,
  "geschmin@@": 3103,
  "geschäfts": 3104,
  "gesäumten": 3105,
  "glücklich": 3106,
  "grin@@": 3107,
  "hay": 3108,
  "heels": 3109,
  "hen": 3110,
  "hood": 3111,
  "hooded": 3112,
  "ht": 3113,
  "hütte": 3114,
  "ie": 3115,
  "jagen": 3116,
  "japanese": 3117,
  "jungs": 3118,
  "kapuzenpulli": 3119,
  "kers": 3120,
  "kneels": 3121,
  "kochen": 3122,
  "konzentriert": 3123,
  "kreuzung": 3124,
  "landscape": 3125,
  "lang@@": 3126,
  "laub": 3127,
  "leder@@": 3128,
  "live": 3129,
  "long-haired": 3130,
  "mer": 3131,
  "mitglieder": 3132,
  "mom": 3133,
  "money": 3134,
  "nahaufnahme": 3135,
  "os": 3136,
  "paints": 3137,
  "pes": 3138,
  "plattform": 3139,
  "plaza": 3140,
  "post": 3141,
  "pped": 3142,
  "raised": 3143,
  "rechten": 3144,
  "richtet": 3145,
  "salon": 3146,
  "serving": 3147,
  "sheep": 3148,
  "skates": 3149,
  "smo@@": 3150,
  "snack": 3151,
  "star@@": 3152,
  "steckt": 3153,
  "sted": 3154,
  "stop@@": 3155,
  "stove": 3156,
  "stro@@": 3157,
  "stu@@": 3158,
  "studenten": 3159,
  "sucht": 3160,
  "sä@@": 3161,
  "tel": 3162,
  "tennisschläger": 3163,
  "tern": 3164,
  "tisch@@": 3165,
  "towel": 3166,
  "training": 3167,
  "umher": 3168,
  "underwater": 3169,
  "uni@@": 3170,
  "ven@@": 3171,
  "verkleidet": 3172,
  "vorbeigehen": 3173,
  "wander@@": 3174,
  "welding": 3175,
  "zen@@": 3176,
  "ziert": 3177,
  "ärmellosen": 3178,
  "2012": 3179,
  "8": 3180,
  "abend": 3181,
  "afrikanische": 3182,
  "amusement": 3183,
  "ary": 3184,
  "assi@@": 3185,
  "athletic": 3186,
  "bass": 3187,
  "befestigt": 3188,
  "bending": 3189,
  "besu@@": 3190,
  "ble@@": 3191,
  "bow@@": 3192,
  "boxer": 3193,
  "brea@@": 3194,
  "brush": 3195,
  "brushing": 3196,
  "bällen": 3197,
  "caucasian": 3198,
  "checkered": 3199,
  "colle@@": 3200,
  "decorated": 3201,
  "del@@": 3202,
  "desig@@": 3203,
  "ear@@": 3204,
  "einkauf@@": 3205,
  "eins": 3206,
  "els": 3207,
  "essen@@": 3208,
  "examining": 3209,
  "figur": 3210,
  "first": 3211,
  "fliegen": 3212,
  "folgt": 3213,
  "fotograf": 3214,
  "freund": 3215,
  "gas": 3216,
  "ged": 3217,
  "gegenstände": 3218,
  "genen": 3219,
  "geschäftigen": 3220,
  "gewand": 3221,
  "geworfen": 3222,
  "gläsern": 3223,
  "glück@@": 3224,
  "gn@@": 3225,
  "good": 3226,
  "gravel": 3227,
  "grilling": 3228,
  "hl": 3229,
  "hlen": 3230,
  "hör@@": 3231,
  "ic": 3232,
  "indische": 3233,
  "individual": 3234,
  "ings": 3235,
  "jemanden": 3236,
  "kalten": 3237,
  "karate@@": 3238,
  "ket@@": 3239,
  "kil@@": 3240,
  "kin@@": 3241,
  "kle@@": 3242,
  "küchen@@": 3243,
  "lehnen": 3244,
  "lines": 3245,
  "lächelndes": 3246,
  "militär@@": 3247,
  "mittel@@": 3248,
  "motorrädern": 3249,
  "mü@@": 3250,
  "mützen": 3251,
  "neon": 3252,
  "ning": 3253,
  "obstacle": 3254,
  "offenem": 3255,
  "operating": 3256,
  "orchestra": 3257,
  "participating": 3258,
  "peace": 3259,
  "pl@@": 3260,
  "print": 3261,
  "pur@@": 3262,
  "rea@@": 3263,
  "read": 3264,
  "referee": 3265,
  "richten": 3266,
  "rolltreppe": 3267,
  "rot-weißen": 3268,
  "röcken": 3269,
  "schildern": 3270,
  "schlä@@": 3271,
  "seems": 3272,
  "sets": 3273,
  "setzen": 3274,
  "shaped": 3275,
  "shes": 3276,
  "sin@@": 3277,
  "sitz": 3278,
  "skatepark": 3279,
  "skleidung": 3280,
  "slo@@": 3281,
  "spielerin": 3282,
  "stadtstraße": 3283,
  "stark": 3284,
  "stoff@@": 3285,
  "sur@@": 3286,
  "sw@@": 3287,
  "teacher": 3288,
  "texas": 3289,
  "things": 3290,
  "thrown": 3291,
  "tin@@": 3292,
  "top@@": 3293,
  "topf": 3294,
  "trainiert": 3295,
  "treffen": 3296,
  "turn@@": 3297,
  "vehicles": 3298,
  "verkehr@@": 3299,
  "waldgebiet": 3300,
  "wed": 3301,
  "weihnachtsbaum": 3302,
  "weit": 3303,
  "werk@@": 3304,
  "wohnzimmer": 3305,
  "ziegel@@": 3306,
  "zwe@@": 3307,
  "ör@@": 3308,
  "-up": 3309,
  "1": 3310,
  "6": 3311,
  "ac@@": 3312,
  "ad": 3313,
  "also": 3314,
  "angezogen": 3315,
  "ani@@": 3316,
  "anti@@": 3317,
  "attempt": 3318,
  "atv": 3319,
  "aufen": 3320,
  "außen@@": 3321,
  "bahnsteig": 3322,
  "baseballkappe": 3323,
  "benches": 3324,
  "bewegung": 3325,
  "bildschirm": 3326,
  "bin@@": 3327,
  "blei@@": 3328,
  "bles": 3329,
  "brot": 3330,
  "bushaltestelle": 3331,
  "button": 3332,
  "bänken": 3333,
  "bücher": 3334,
  "cello": 3335,
  "chest": 3336,
  "compete": 3337,
  "cone": 3338,
  "crouches": 3339,
  "daumen": 3340,
  "decken": 3341,
  "dig@@": 3342,
  "domin@@": 3343,
  "dunkelhaarige": 3344,
  "ern@@": 3345,
  "feeding": 3346,
  "firefighters": 3347,
  "foto@@": 3348,
  "füßen": 3349,
  "garten@@": 3350,
  "gehalten": 3351,
  "gelehnt": 3352,
  "genden": 3353,
  "geri@@": 3354,
  "geschenk": 3355,
  "golf@@": 3356,
  "haircut": 3357,
  "hallway": 3358,
  "haltung": 3359,
  "harness": 3360,
  "hilfe": 3361,
  "hitting": 3362,
  "hn@@": 3363,
  "hocke": 3364,
  "hölzernen": 3365,
  "ihres": 3366,
  "ity": 3367,
  "jugendliche": 3368,
  "kahlköpfiger": 3369,
  "kamera@@": 3370,
  "kie@@": 3371,
  "kiste": 3372,
  "komplett": 3373,
  "kopf@@": 3374,
  "kre@@": 3375,
  "kunststücke": 3376,
  "kä@@": 3377,
  "lar": 3378,
  "lä@@": 3379,
  "map": 3380,
  "mehr@@": 3381,
  "mitarbeiter": 3382,
  "model": 3383,
  "motocross": 3384,
  "muddy": 3385,
  "ner@@": 3386,
  "ns": 3387,
  "ny": 3388,
  "nähert": 3389,
  "off@@": 3390,
  "only": 3391,
  "opponent": 3392,
  "out@@": 3393,
  "papier@@": 3394,
  "part@@": 3395,
  "passengers": 3396,
  "photographs": 3397,
  "pitch": 3398,
  "plakat": 3399,
  "poli@@": 3400,
  "practice": 3401,
  "presentation": 3402,
  "protest": 3403,
  "racer": 3404,
  "rast": 3405,
  "rau@@": 3406,
  "rec@@": 3407,
  "res": 3408,
  "rests": 3409,
  "ropes": 3410,
  "rowing": 3411,
  "schaufelt": 3412,
  "schutz@@": 3413,
  "schwarz-weißen": 3414,
  "schäferhund": 3415,
  "scuba": 3416,
  "seiten": 3417,
  "sharing": 3418,
  "she@@": 3419,
  "sich@@": 3420,
  "silbernen": 3421,
  "snowboarding": 3422,
  "sonnenbrillen": 3423,
  "span@@": 3424,
  "speisen": 3425,
  "spielern": 3426,
  "ssen@@": 3427,
  "steilen": 3428,
  "steinmauer": 3429,
  "sticking": 3430,
  "stones": 3431,
  "streichelt": 3432,
  "tattoos": 3433,
  "teil@@": 3434,
  "theater": 3435,
  "tief": 3436,
  "tieren": 3437,
  "tourist": 3438,
  "tourists": 3439,
  "traktor": 3440,
  "trägerhemd": 3441,
  "tub": 3442,
  "turning": 3443,
  "up@@": 3444,
  "ute": 3445,
  "verkauf": 3446,
  "vier@@": 3447,
  "wagon": 3448,
  "wandbild": 3449,
  "wat@@": 3450,
  "weint": 3451,
  "werkzeug": 3452,
  "wh@@": 3453,
  "wie@@": 3454,
  "wild@@": 3455,
  "wänden": 3456,
  "ße": 3457,
  "action": 3458,
  "aged": 3459,
  "ahead": 3460,
  "ale": 3461,
  "ally": 3462,
  "apple": 3463,
  "ard": 3464,
  "aufführung": 3465,
  "ausgestreckten": 3466,
  "balance": 3467,
  "banjo": 3468,
  "bars": 3469,
  "bathroom": 3470,
  "beutel": 3471,
  "birthday": 3472,
  "blond@@": 3473,
  "blättern": 3474,
  "boxing": 3475,
  "braun-@@": 3476,
  "brust": 3477,
  "but": 3478,
  "bär@@": 3479,
  "carpet": 3480,
  "ced": 3481,
  "chase": 3482,
  "chtet": 3483,
  "cleans": 3484,
  "college": 3485,
  "container": 3486,
  "craft": 3487,
  "cricket": 3488,
  "del": 3489,
  "dert": 3490,
  "digen": 3491,
  "dish": 3492,
  "ear": 3493,
  "eight": 3494,
  "ellen": 3495,
  "ess@@": 3496,
  "fan": 3497,
  "figure": 3498,
  "fli@@": 3499,
  "fly": 3500,
  "free": 3501,
  "fruits": 3502,
  "gassi": 3503,
  "geparkt": 3504,
  "gepäck": 3505,
  "geräten": 3506,
  "gesi@@": 3507,
  "gesichts@@": 3508,
  "getränken": 3509,
  "go-@@": 3510,
  "graffitis": 3511,
  "groups": 3512,
  "guitars": 3513,
  "gummi@@": 3514,
  "haariges": 3515,
  "halb": 3516,
  "hall": 3517,
  "headscarf": 3518,
  "heißen": 3519,
  "hindernis": 3520,
  "hinunter@@": 3521,
  "hr@@": 3522,
  "hugs": 3523,
  "hän@@": 3524,
  "hürde": 3525,
  "inten@@": 3526,
  "ischen": 3527,
  "joggen": 3528,
  "joggt": 3529,
  "ju@@": 3530,
  "jumpsuit": 3531,
  "jungle": 3532,
  "jüngeren": 3533,
  "kau@@": 3534,
  "kla@@": 3535,
  "klavier": 3536,
  "kletterer": 3537,
  "kopfhörern": 3538,
  "kra@@": 3539,
  "kranken@@": 3540,
  "krei@@": 3541,
  "labor": 3542,
  "langhaariger": 3543,
  "laster": 3544,
  "laub@@": 3545,
  "leggings": 3546,
  "ler@@": 3547,
  "lit@@": 3548,
  "loading": 3549,
  "long-sleeved": 3550,
  "machinery": 3551,
  "malen": 3552,
  "material": 3553,
  "menschengruppe": 3554,
  "motorcyclist": 3555,
  "mustache": 3556,
  "mö@@": 3557,
  "navy": 3558,
  "nu@@": 3559,
  "ohr@@": 3560,
  "oni@@": 3561,
  "orchester": 3562,
  "patio": 3563,
  "pel@@": 3564,
  "pil@@": 3565,
  "piste": 3566,
  "policeman": 3567,
  "ppt": 3568,
  "pul@@": 3569,
  "pull": 3570,
  "puppe": 3571,
  "pärchen": 3572,
  "quarterback": 3573,
  "racetrack": 3574,
  "rohr": 3575,
  "ry": 3576,
  "sammelt": 3577,
  "schaft@@": 3578,
  "scheinen": 3579,
  "schiff": 3580,
  "schmutzigen": 3581,
  "schnurrbart": 3582,
  "schule": 3583,
  "sink": 3584,
  "soldat": 3585,
  "song": 3586,
  "speech": 3587,
  "sporting": 3588,
  "stet": 3589,
  "stier": 3590,
  "sty@@": 3591,
  "stöcken": 3592,
  "tee": 3593,
  "tig": 3594,
  "tile": 3595,
  "tool": 3596,
  "turns": 3597,
  "umhang": 3598,
  "verschieden@@": 3599,
  "viewing": 3600,
  "vorn": 3601,
  "weiß@@": 3602,
  "werfer": 3603,
  "werk": 3604,
  "wide": 3605,
  "wire": 3606,
  "wn": 3607,
  "wunderschönen": 3608,
  "wäsche": 3609,
  "yoga": 3610,
  "zer": 3611,
  "zuschauermenge": 3612,
  "ähn@@": 3613,
  "aben@@": 3614,
  "aber": 3615,
  "ance": 3616,
  "angel": 3617,
  "anlage": 3618,
  "anlegestelle": 3619,
  "apartment": 3620,
  "army": 3621,
  "atten@@": 3622,
  "backstein@@": 3623,
  "bare": 3624,
  "baseballmütze": 3625,
  "baskets": 3626,
  "bath": 3627,
  "bauch": 3628,
  "beam": 3629,
  "belt": 3630,
  "bern": 3631,
  "beschäftigt": 3632,
  "beverage": 3633,
  "bin": 3634,
  "blume": 3635,
  "boardwalk": 3636,
  "bor@@": 3637,
  "bowlingbahn": 3638,
  "bushes": 3639,
  "cally": 3640,
  "case": 3641,
  "ceiling": 3642,
  "china": 3643,
  "chor": 3644,
  "chte": 3645,
  "cing": 3646,
  "ckigen": 3647,
  "coo@@": 3648,
  "cross@@": 3649,
  "crouching": 3650,
  "dark-skinned": 3651,
  "deck@@": 3652,
  "deln": 3653,
  "dge": 3654,
  "dia@@": 3655,
  "dicht": 3656,
  "direkt": 3657,
  "discussion": 3658,
  "dune": 3659,
  "dy": 3660,
  "e-gitarre": 3661,
  "eastern": 3662,
  "einzelner": 3663,
  "er-@@": 3664,
  "erd@@": 3665,
  "ered": 3666,
  "experiment": 3667,
  "ey@@": 3668,
  "falls": 3669,
  "fancy": 3670,
  "farm": 3671,
  "fern@@": 3672,
  "fire@@": 3673,
  "fischer": 3674,
  "flaschen": 3675,
  "flughafen": 3676,
  "fr@@": 3677,
  "ften": 3678,
  "füllt": 3679,
  "füttert": 3680,
  "füße": 3681,
  "g-@@": 3682,
  "geb@@": 3683,
  "gelände": 3684,
  "gelände@@": 3685,
  "gitarrist": 3686,
  "glo@@": 3687,
  "great": 3688,
  "greifen": 3689,
  "half": 3690,
  "hell": 3691,
  "herd": 3692,
  "herself": 3693,
  "herum@@": 3694,
  "hillside": 3695,
  "horseback": 3696,
  "hula-hoop-reifen": 3697,
  "indoors": 3698,
  "intersection": 3699,
  "jeep": 3700,
  "k-@@": 3701,
  "kam@@": 3702,
  "kegel": 3703,
  "kerzen": 3704,
  "klasse": 3705,
  "knien": 3706,
  "kro@@": 3707,
  "kunstwerk": 3708,
  "lacrosse": 3709,
  "lampe": 3710,
  "lane": 3711,
  "leaving": 3712,
  "lehrer": 3713,
  "let@@": 3714,
  "lied": 3715,
  "mall": 3716,
  "mann@@": 3717,
  "medical": 3718,
  "member": 3719,
  "ming": 3720,
  "mädchens": 3721,
  "narrow": 3722,
  "neighborhood": 3723,
  "neon@@": 3724,
  "nickerchen": 3725,
  "nähmaschine": 3726,
  "observe": 3727,
  "petting": 3728,
  "pilot": 3729,
  "possibly": 3730,
  "post@@": 3731,
  "radfahrern": 3732,
  "rede": 3733,
  "ribbon": 3734,
  "rosafarbenem": 3735,
  "routine": 3736,
  "rubber": 3737,
  "rudert": 3738,
  "rü@@": 3739,
  "schaft": 3740,
  "schaufenster@@": 3741,
  "schmutzi@@": 3742,
  "schutzbrille": 3743,
  "see@@": 3744,
  "seilen": 3745,
  "sells": 3746,
  "sho@@": 3747,
  "shoot": 3748,
  "sion": 3749,
  "slides": 3750,
  "smoke": 3751,
  "snow-covered": 3752,
  "space": 3753,
  "spani@@": 3754,
  "sportveranstaltung": 3755,
  "spü@@": 3756,
  "stehende": 3757,
  "stopped": 3758,
  "stretching": 3759,
  "städtische": 3760,
  "stö@@": 3761,
  "super@@": 3762,
  "swe@@": 3763,
  "swimmer": 3764,
  "szene": 3765,
  "tattooed": 3766,
  "teig": 3767,
  "tents": 3768,
  "torhüter": 3769,
  "treppen": 3770,
  "trumpet": 3771,
  "turban": 3772,
  "typen": 3773,
  "tze": 3774,
  "uf@@": 3775,
  "und@@": 3776,
  "vendors": 3777,
  "versch@@": 3778,
  "video@@": 3779,
  "violettem": 3780,
  "volleyball@@": 3781,
  "vorbeifährt": 3782,
  "vorrichtung": 3783,
  "wan@@": 3784,
  "wen@@": 3785,
  "za@@": 3786,
  "ziel": 3787,
  "ßt": 3788,
  "älteres": 3789,
  "4@@": 3790,
  "a-@@": 3791,
  "afrikanischer": 3792,
  "alen": 3793,
  "amüsieren": 3794,
  "angelrute": 3795,
  "anhat": 3796,
  "aufblasbaren": 3797,
  "aufs": 3798,
  "aufzu@@": 3799,
  "ausstellung": 3800,
  "backs": 3801,
  "barri@@": 3802,
  "batter": 3803,
  "bearbeitet": 3804,
  "beine": 3805,
  "beißt": 3806,
  "berühren": 3807,
  "blau-weißen": 3808,
  "bly": 3809,
  "booten": 3810,
  "bottles": 3811,
  "bowlingkugel": 3812,
  "bru@@": 3813,
  "buckets": 3814,
  "buy": 3815,
  "bä@@": 3816,
  "cal@@": 3817,
  "cans": 3818,
  "cap@@": 3819,
  "card": 3820,
  "cardboard": 3821,
  "celebrating": 3822,
  "chefs": 3823,
  "choir": 3824,
  "chts": 3825,
  "clay": 3826,
  "clowns": 3827,
  "computers": 3828,
  "conference": 3829,
  "cts": 3830,
  "dead": 3831,
  "dinge": 3832,
  "dishes": 3833,
  "don@@": 3834,
  "einkaufszentrum": 3835,
  "eltern": 3836,
  "entlang@@": 3837,
  "entrance": 3838,
  "erte": 3839,
  "excited": 3840,
  "fencing": 3841,
  "fenster@@": 3842,
  "feuerwehrmänner": 3843,
  "ffs": 3844,
  "findet": 3845,
  "finger@@": 3846,
  "finish": 3847,
  "folding": 3848,
  "formation": 3849,
  "fotografen": 3850,
  "fran@@": 3851,
  "funny": 3852,
  "för@@": 3853,
  "geblümten": 3854,
  "geschäften": 3855,
  "geschäfts@@": 3856,
  "gewehr": 3857,
  "gewässers": 3858,
  "got": 3859,
  "guitarist": 3860,
  "halb@@": 3861,
  "halle": 3862,
  "han@@": 3863,
  "handschuh": 3864,
  "heart": 3865,
  "helps": 3866,
  "herunter@@": 3867,
  "heu": 3868,
  "high-@@": 3869,
  "hinterhof": 3870,
  "histor@@": 3871,
  "hospital": 3872,
  "häusern": 3873,
  "indi@@": 3874,
  "john": 3875,
  "kariertem": 3876,
  "karten": 3877,
  "kaut": 3878,
  "keep": 3879,
  "kette": 3880,
  "kick@@": 3881,
  "knie@@": 3882,
  "lachend": 3883,
  "lay": 3884,
  "lebensmittel@@": 3885,
  "leit@@": 3886,
  "liegenden": 3887,
  "los": 3888,
  "maroon": 3889,
  "marschiert": 3890,
  "maschinen": 3891,
  "mau@@": 3892,
  "mechani@@": 3893,
  "messer": 3894,
  "metal@@": 3895,
  "microphones": 3896,
  "mithilfe": 3897,
  "mixing": 3898,
  "mohawk": 3899,
  "more": 3900,
  "mostly": 3901,
  "mountainbike": 3902,
  "nets": 3903,
  "ohren": 3904,
  "oli@@": 3905,
  "oper@@": 3906,
  "oping": 3907,
  "organi@@": 3908,
  "ornate": 3909,
  "outstretched": 3910,
  "pack": 3911,
  "pack@@": 3912,
  "pick@@": 3913,
  "pieces": 3914,
  "pper": 3915,
  "puppy": 3916,
  "que": 3917,
  "regenschirmen": 3918,
  "rela@@": 3919,
  "rennwagen": 3920,
  "ron@@": 3921,
  "rot@@": 3922,
  "rucksäcken": 3923,
  "satz": 3924,
  "sau@@": 3925,
  "saw": 3926,
  "schein@@": 3927,
  "schlagzeuger": 3928,
  "schmuck": 3929,
  "schu@@": 3930,
  "schwach": 3931,
  "schwarz-weiß": 3932,
  "schwimmbad": 3933,
  "seats": 3934,
  "shepherd": 3935,
  "shi@@": 3936,
  "sicht@@": 3937,
  "socken": 3938,
  "sportkleidung": 3939,
  "spring": 3940,
  "squatting": 3941,
  "ssenen": 3942,
  "steinigen": 3943,
  "strohhut": 3944,
  "them@@": 3945,
  "til@@": 3946,
  "trompete": 3947,
  "u-bahn-@@": 3948,
  "uniformed": 3949,
  "uts": 3950,
  "vil": 3951,
  "wein": 3952,
  "wett@@": 3953,
  "wheels": 3954,
  "yer": 3955,
  "youth": 3956,
  "ys": 3957,
  "ziel@@": 3958,
  "ß": 3959,
  "abendessen": 3960,
  "ari@@": 3961,
  "ates": 3962,
  "auszu@@": 3963,
  "backsteingebäude": 3964,
  "bau": 3965,
  "bear": 3966,
  "beigefarbenen": 3967,
  "bestehende": 3968,
  "bet@@": 3969,
  "blasen": 3970,
  "blazer": 3971,
  "blows": 3972,
  "blu@@": 3973,
  "bluejeans": 3974,
  "blü@@": 3975,
  "bowls": 3976,
  "boxen": 3977,
  "bron@@": 3978,
  "broom": 3979,
  "bum@@": 3980,
  "bälle": 3981,
  "ca": 3982,
  "calf": 3983,
  "castle": 3984,
  "ce-@@": 3985,
  "cher@@": 3986,
  "cki@@": 3987,
  "cla@@": 3988,
  "cloth@@": 3989,
  "coloring": 3990,
  "comfor@@": 3991,
  "ctors": 3992,
  "cuts": 3993,
  "daneben": 3994,
  "dire@@": 3995,
  "dj": 3996,
  "doctor": 3997,
  "doors": 3998,
  "drachen": 3999,
  "dreck": 4000,
  "dunkelblauen": 4001,
  "ed@@": 4002,
  "elle": 4003,
  "engine": 4004,
  "ente": 4005,
  "erer": 4006,
  "ethnic": 4007,
  "factory": 4008,
  "fahne": 4009,
  "fahrgeschäft": 4010,
  "farbige": 4011,
  "fegt": 4012,
  "feuert": 4013,
  "feuerwehrmann": 4014,
  "firetruck": 4015,
  "fisherman": 4016,
  "flachen": 4017,
  "flipping": 4018,
  "float": 4019,
  "flügeln": 4020,
  "flüssigkeit": 4021,
  "football-@@": 4022,
  "fröh@@": 4023,
  "furniture": 4024,
  "gegenseitig": 4025,
  "gehende": 4026,
  "geländemotorradfahrer": 4027,
  "gespräch": 4028,
  "ght": 4029,
  "giert": 4030,
  "gli@@": 4031,
  "gol@@": 4032,
  "grau@@": 4033,
  "graue": 4034,
  "griff": 4035,
  "grillen": 4036,
  "grinding": 4037,
  "haarige": 4038,
  "hair@@": 4039,
  "haus@@": 4040,
  "hei@@": 4041,
  "hochzeit": 4042,
  "hoops": 4043,
  "hüte": 4044,
  "inspecting": 4045,
  "item": 4046,
  "jack@@": 4047,
  "jahrmarkt": 4048,
  "jeans@@": 4049,
  "jüngere": 4050,
  "ka": 4051,
  "kameras": 4052,
  "klettergerüst": 4053,
  "kopfüber": 4054,
  "krie@@": 4055,
  "kurs": 4056,
  "köpfen": 4057,
  "körben": 4058,
  "leading": 4059,
  "library": 4060,
  "lle": 4061,
  "medi@@": 4062,
  "ments": 4063,
  "mischer": 4064,
  "motor": 4065,
  "ob@@": 4066,
  "offenbar": 4067,
  "outdoor-@@": 4068,
  "packt": 4069,
  "pan": 4070,
  "para@@": 4071,
  "patient": 4072,
  "pick": 4073,
  "picknicktisch": 4074,
  "pine": 4075,
  "platte": 4076,
  "polka": 4077,
  "rahmen": 4078,
  "reflective": 4079,
  "reicht": 4080,
  "riesige": 4081,
  "rings": 4082,
  "rink": 4083,
  "roller-@@": 4084,
  "rough": 4085,
  "rural": 4086,
  "saal": 4087,
  "sandstrand": 4088,
  "saxophon": 4089,
  "scenery": 4090,
  "schrei@@": 4091,
  "schwarz-brauner": 4092,
  "schweißt": 4093,
  "schwenkt": 4094,
  "sei@@": 4095,
  "sel": 4096,
  "sleeveless": 4097,
  "smokes": 4098,
  "sperr@@": 4099,
  "spielkleidung": 4100,
  "spinning": 4101,
  "spraying": 4102,
  "sprung@@": 4103,
  "stab": 4104,
  "stack": 4105,
  "star": 4106,
  "stares": 4107,
  "stat@@": 4108,
  "stelle": 4109,
  "storefront": 4110,
  "str@@": 4111,
  "stripes": 4112,
  "stroll": 4113,
  "stufe": 4114,
  "sword": 4115,
  "tered": 4116,
  "tier@@": 4117,
  "tiere": 4118,
  "tiger": 4119,
  "tly": 4120,
  "trainer": 4121,
  "transpor@@": 4122,
  "unds": 4123,
  "vegetable": 4124,
  "waffe": 4125,
  "wagens": 4126,
  "wand@@": 4127,
  "wheelie": 4128,
  "wissenschaft@@": 4129,
  "wunder@@": 4130,
  "zeit@@": 4131,
  "zeitschrift": 4132,
  "zieren": 4133,
  "zing": 4134,
  "zuge@@": 4135,
  "zäh@@": 4136,
  "äl@@": 4137,
  "act": 4138,
  "ado@@": 4139,
  "approaching": 4140,
  "arbeits@@": 4141,
  "arch@@": 4142,
  "ation@@": 4143,
  "ator": 4144,
  "baby@@": 4145,
  "badewanne": 4146,
  "bahnhof": 4147,
  "balances": 4148,
  "balding": 4149,
  "ballon": 4150,
  "barrel": 4151,
  "begutachtet": 4152,
  "bekommen": 4153,
  "beleuchtung": 4154,
  "bewölkten": 4155,
  "bild@@": 4156,
  "bon@@": 4157,
  "br@@": 4158,
  "brandung": 4159,
  "brief@@": 4160,
  "broken": 4161,
  "bunt": 4162,
  "bunter": 4163,
  "büro@@": 4164,
  "candles": 4165,
  "cape": 4166,
  "care": 4167,
  "carving": 4168,
  "catcher": 4169,
  "chalk": 4170,
  "clad": 4171,
  "cli@@": 4172,
  "come": 4173,
  "computer@@": 4174,
  "cool": 4175,
  "crane": 4176,
  "cru@@": 4177,
  "dam@@": 4178,
  "discussing": 4179,
  "dose": 4180,
  "downtown": 4181,
  "druck": 4182,
  "drückt": 4183,
  "duck": 4184,
  "dunkelhaariger": 4185,
  "einzel@@": 4186,
  "ele@@": 4187,
  "elephant": 4188,
  "emergency": 4189,
  "ence": 4190,
  "entspannen": 4191,
  "ets": 4192,
  "ette": 4193,
  "expre@@": 4194,
  "farbenfroher": 4195,
  "feld@@": 4196,
  "fels@@": 4197,
  "fix": 4198,
  "fluffy": 4199,
  "flöte": 4200,
  "folded": 4201,
  "following": 4202,
  "ford": 4203,
  "frisbeescheibe": 4204,
  "fußballfeld": 4205,
  "führung": 4206,
  "gelb@@": 4207,
  "geldbörse": 4208,
  "gern": 4209,
  "geschäftskleidung": 4210,
  "gleisen": 4211,
  "grimasse": 4212,
  "gui@@": 4213,
  "gymnasium": 4214,
  "helme": 4215,
  "herab": 4216,
  "herr@@": 4217,
  "hor@@": 4218,
  "houses": 4219,
  "händler": 4220,
  "hö@@": 4221,
  "iel@@": 4222,
  "il": 4223,
  "instru@@": 4224,
  "intently": 4225,
  "jeansjacke": 4226,
  "jewelry": 4227,
  "jockeys": 4228,
  "jubeln": 4229,
  "kalb": 4230,
  "ken@@": 4231,
  "khaki@@": 4232,
  "kilt": 4233,
  "kir@@": 4234,
  "kite": 4235,
  "kli@@": 4236,
  "kni@@": 4237,
  "kno@@": 4238,
  "koch@@": 4239,
  "kugel": 4240,
  "kurz@@": 4241,
  "köche": 4242,
  "köpfige": 4243,
  "körper": 4244,
  "lamp": 4245,
  "lat@@": 4246,
  "leicht": 4247,
  "lern": 4248,
  "lifting": 4249,
  "listens": 4250,
  "ll@@": 4251,
  "marschieren": 4252,
  "mes": 4253,
  "mittag": 4254,
  "motorbike": 4255,
  "musi@@": 4256,
  "my": 4257,
  "naked": 4258,
  "name": 4259,
  "nighttime": 4260,
  "noch": 4261,
  "objects": 4262,
  "operation": 4263,
  "overhead": 4264,
  "paddeln": 4265,
  "paint@@": 4266,
  "parents": 4267,
  "parkt": 4268,
  "pfan@@": 4269,
  "pflü@@": 4270,
  "pigeons": 4271,
  "planscht": 4272,
  "plat@@": 4273,
  "plates": 4274,
  "pt": 4275,
  "pun@@": 4276,
  "que@@": 4277,
  "rainy": 4278,
  "raises": 4279,
  "ral": 4280,
  "rasi@@": 4281,
  "reach": 4282,
  "red@@": 4283,
  "reinigen": 4284,
  "rennauto": 4285,
  "rod": 4286,
  "rollt": 4287,
  "sanddüne": 4288,
  "schlafanzug": 4289,
  "schmetter@@": 4290,
  "schwer@@": 4291,
  "schö@@": 4292,
  "setz@@": 4293,
  "sicht": 4294,
  "sides": 4295,
  "skateboard@@": 4296,
  "skil@@": 4297,
  "speed": 4298,
  "sportwagen": 4299,
  "spread": 4300,
  "sprüh@@": 4301,
  "stairway": 4302,
  "stangen": 4303,
  "starting": 4304,
  "statt": 4305,
  "story": 4306,
  "straßenhändler": 4307,
  "stöcke": 4308,
  "surrounding": 4309,
  "sweat@@": 4310,
  "sängerin": 4311,
  "tain": 4312,
  "team@@": 4313,
  "techni@@": 4314,
  "television": 4315,
  "tied": 4316,
  "tigt": 4317,
  "times": 4318,
  "trainieren": 4319,
  "treibt": 4320,
  "trucks": 4321,
  "ttern": 4322,
  "turned": 4323,
  "turnerin": 4324,
  "untersuchen": 4325,
  "ures": 4326,
  "verlassen": 4327,
  "wandern": 4328,
  "war": 4329,
  "ward": 4330,
  "waschen": 4331,
  "waschsalon": 4332,
  "wasserflasche": 4333,
  "welpen": 4334,
  "wettrennen": 4335,
  "wife": 4336,
  "wirbelt": 4337,
  "wn@@": 4338,
  "zone": 4339,
  "zug@@": 4340,
  "&apos;t": 4341,
  "-down": 4342,
  "-like": 4343,
  "6@@": 4344,
  "advertising": 4345,
  "afro@@": 4346,
  "afroamerikaner": 4347,
  "amongst": 4348,
  "aufnahme": 4349,
  "augen@@": 4350,
  "ballet@@": 4351,
  "barber": 4352,
  "baseballspiel": 4353,
  "baumes": 4354,
  "beam@@": 4355,
  "beln": 4356,
  "beneath": 4357,
  "bespritzt": 4358,
  "bewundert": 4359,
  "bier@@": 4360,
  "bietet": 4361,
  "biking": 4362,
  "black@@": 4363,
  "blau@@": 4364,
  "blin@@": 4365,
  "blow": 4366,
  "blumenmuster": 4367,
  "branch": 4368,
  "braun-schwarzer": 4369,
  "braun@@": 4370,
  "bus@@": 4371,
  "bückt": 4372,
  "büschen": 4373,
  "called": 4374,
  "cameras": 4375,
  "caps": 4376,
  "cheerleader@@": 4377,
  "cker@@": 4378,
  "comple@@": 4379,
  "control": 4380,
  "converse": 4381,
  "corn": 4382,
  "crosses": 4383,
  "cut@@": 4384,
  "dach@@": 4385,
  "dazu": 4386,
  "dig": 4387,
  "directions": 4388,
  "diskutieren": 4389,
  "drei@@": 4390,
  "dru@@": 4391,
  "dum@@": 4392,
  "eingezäunten": 4393,
  "einrad": 4394,
  "eishockeyspieler": 4395,
  "electronic": 4396,
  "engaged": 4397,
  "engen": 4398,
  "esel": 4399,
  "ey": 4400,
  "fallschirm": 4401,
  "farb@@": 4402,
  "farbenes": 4403,
  "feiert": 4404,
  "felsen@@": 4405,
  "fernglas": 4406,
  "festhält": 4407,
  "fireman": 4408,
  "fisch@@": 4409,
  "flan@@": 4410,
  "flowered": 4411,
  "flur": 4412,
  "follows": 4413,
  "forward": 4414,
  "freiluft@@": 4415,
  "frisur": 4416,
  "fs": 4417,
  "fußgängerüberweg": 4418,
  "förmigen": 4419,
  "gefüllt": 4420,
  "gele@@": 4421,
  "gend": 4422,
  "gewändern": 4423,
  "ggy": 4424,
  "gleichen": 4425,
  "grand@@": 4426,
  "gras@@": 4427,
  "grasfläche": 4428,
  "grau-@@": 4429,
  "headband": 4430,
  "hinein": 4431,
  "hits": 4432,
  "hoben": 4433,
  "hochzeits@@": 4434,
  "hoo@@": 4435,
  "hrt": 4436,
  "hug": 4437,
  "ini@@": 4438,
  "inn@@": 4439,
  "iter": 4440,
  "kaffee@@": 4441,
  "kapuze": 4442,
  "keit": 4443,
  "kie": 4444,
  "kleidungs@@": 4445,
  "kletter@@": 4446,
  "konstruktion": 4447,
  "lange": 4448,
  "lar@@": 4449,
  "lasso": 4450,
  "leu@@": 4451,
  "liquid": 4452,
  "ll": 4453,
  "logo": 4454,
  "lounge": 4455,
  "lounging": 4456,
  "löffel": 4457,
  "maulkorb": 4458,
  "mittagessen": 4459,
  "monument": 4460,
  "motorroller": 4461,
  "motorräder": 4462,
  "mountain@@": 4463,
  "nack@@": 4464,
  "nah": 4465,
  "necklace": 4466,
  "neu@@": 4467,
  "newborn": 4468,
  "numerous": 4469,
  "näh@@": 4470,
  "näht": 4471,
  "observing": 4472,
  "oc@@": 4473,
  "odd": 4474,
  "orangefarbene": 4475,
  "oranges": 4476,
  "p-@@": 4477,
  "palmen": 4478,
  "papers": 4479,
  "parasailing": 4480,
  "partially": 4481,
  "participate": 4482,
  "pass@@": 4483,
  "pea@@": 4484,
  "pft": 4485,
  "photos": 4486,
  "pinata": 4487,
  "pira@@": 4488,
  "point": 4489,
  "polo@@": 4490,
  "pottery": 4491,
  "present": 4492,
  "profession@@": 4493,
  "protesting": 4494,
  "pum@@": 4495,
  "putzen": 4496,
  "raising": 4497,
  "redheaded": 4498,
  "relax": 4499,
  "repair": 4500,
  "rug": 4501,
  "ruhigen": 4502,
  "runter": 4503,
  "schau": 4504,
  "schaufenster": 4505,
  "schei@@": 4506,
  "scheinbar": 4507,
  "schieben": 4508,
  "schilder": 4509,
  "schlitt@@": 4510,
  "schotter@@": 4511,
  "schri@@": 4512,
  "schubkarre": 4513,
  "schwarzwei@@": 4514,
  "security": 4515,
  "shades": 4516,
  "shaved": 4517,
  "shel@@": 4518,
  "shovels": 4519,
  "sig@@": 4520,
  "smaller": 4521,
  "sna@@": 4522,
  "sommer@@": 4523,
  "spaziergang": 4524,
  "sprinkl@@": 4525,
  "sprinkler": 4526,
  "ssed": 4527,
  "ssing": 4528,
  "sst": 4529,
  "starren": 4530,
  "stei@@": 4531,
  "sten@@": 4532,
  "stil": 4533,
  "stirn": 4534,
  "stücke": 4535,
  "suchen": 4536,
  "swimmers": 4537,
  "tack@@": 4538,
  "tal@@": 4539,
  "tch": 4540,
  "teaching": 4541,
  "teammate": 4542,
  "teenageralter": 4543,
  "tennisspielerin": 4544,
  "terrain": 4545,
  "test": 4546,
  "thin": 4547,
  "ties": 4548,
  "tle": 4549,
  "tribüne": 4550,
  "trock@@": 4551,
  "turner": 4552,
  "tä@@": 4553,
  "tö@@": 4554,
  "ufer@@": 4555,
  "unicycle": 4556,
  "usa": 4557,
  "uti@@": 4558,
  "vel@@": 4559,
  "verkleidete": 4560,
  "verlässt": 4561,
  "versammlung": 4562,
  "vielleicht": 4563,
  "village": 4564,
  "ving": 4565,
  "violine": 4566,
  "vorne": 4567,
  "vorüber": 4568,
  "vögel": 4569,
  "wald@@": 4570,
  "waldweg": 4571,
  "weg@@": 4572,
  "weihnachts@@": 4573,
  "wendet": 4574,
  "werkstatt": 4575,
  "whi@@": 4576,
  "white-@@": 4577,
  "wings": 4578,
  "world": 4579,
  "wrestle": 4580,
  "wur@@": 4581,
  "xes": 4582,
  "zahlreiche": 4583,
  "zahn@@": 4584,
  "zed": 4585,
  "zeichnung": 4586,
  "zeugen": 4587,
  "ziegelmauer": 4588,
  "zöpfen": 4589,
  "überprüft": 4590,
  "ün@@": 4591,
  "#": 4592,
  "11": 4593,
  "8@@": 4594,
  "?": 4595,
  "achterbahn": 4596,
  "admiring": 4597,
  "afroamerikanische": 4598,
  "ages": 4599,
  "airborne": 4600,
  "aisle": 4601,
  "akustikgitarre": 4602,
  "ameri@@": 4603,
  "america": 4604,
  "aqu@@": 4605,
  "aquarium": 4606,
  "asiatinnen": 4607,
  "athletes": 4608,
  "aussehenden": 4609,
  "bauarbeiten": 4610,
  "beanie": 4611,
  "beginnt": 4612,
  "bett@@": 4613,
  "bewegen": 4614,
  "bibliothek": 4615,
  "billboard": 4616,
  "binoculars": 4617,
  "blau-gelben": 4618,
  "book@@": 4619,
  "brauen": 4620,
  "brillen": 4621,
  "busses": 4622,
  "by-@@": 4623,
  "bändern": 4624,
  "bücher@@": 4625,
  "bürger@@": 4626,
  "calm": 4627,
  "camel": 4628,
  "cards": 4629,
  "carry": 4630,
  "casual": 4631,
  "char@@": 4632,
  "charac@@": 4633,
  "cobblestone": 4634,
  "collie": 4635,
  "conven@@": 4636,
  "cook": 4637,
  "crafts": 4638,
  "dad": 4639,
  "dding": 4640,
  "deckt": 4641,
  "dekorati@@": 4642,
  "demonstration": 4643,
  "donkey": 4644,
  "dough": 4645,
  "drinnen": 4646,
  "east": 4647,
  "einsamer": 4648,
  "eling": 4649,
  "en-@@": 4650,
  "entertain@@": 4651,
  "entlanggeht": 4652,
  "ertes": 4653,
  "essens@@": 4654,
  "etten": 4655,
  "fahrrads": 4656,
  "fahrzeuge": 4657,
  "fahrzeugs": 4658,
  "fake": 4659,
  "farbene": 4660,
  "farbenfro@@": 4661,
  "figuren": 4662,
  "filmt": 4663,
  "firemen": 4664,
  "flips": 4665,
  "folgen": 4666,
  "gebeugt": 4667,
  "gegner": 4668,
  "gei@@": 4669,
  "gemüse@@": 4670,
  "gera@@": 4671,
  "geschen@@": 4672,
  "gest@@": 4673,
  "gestreiftes": 4674,
  "gift": 4675,
  "glatzköpfiger": 4676,
  "gle": 4677,
  "glei@@": 4678,
  "gleichzeitig": 4679,
  "glove": 4680,
  "grimassen": 4681,
  "grund@@": 4682,
  "guards": 4683,
  "guns": 4684,
  "gy@@": 4685,
  "gürtel": 4686,
  "haarigen": 4687,
  "hafen@@": 4688,
  "hier": 4689,
  "hil@@": 4690,
  "hochge@@": 4691,
  "holen": 4692,
  "homeless": 4693,
  "hotdog": 4694,
  "häu@@": 4695,
  "ily": 4696,
  "indischer": 4697,
  "interacting": 4698,
  "intervie@@": 4699,
  "ite@@": 4700,
  "job": 4701,
  "jubelt": 4702,
  "kamel@@": 4703,
  "karten@@": 4704,
  "karton": 4705,
  "karussell": 4706,
  "khakifarbenen": 4707,
  "khakis": 4708,
  "kindes": 4709,
  "klassenraum": 4710,
  "klatscht": 4711,
  "kleider": 4712,
  "kunststoff@@": 4713,
  "kur@@": 4714,
  "laden@@": 4715,
  "lager@@": 4716,
  "landet": 4717,
  "leads": 4718,
  "leinwand": 4719,
  "lichem": 4720,
  "ligen": 4721,
  "listen": 4722,
  "lobby": 4723,
  "lockigen": 4724,
  "love": 4725,
  "ländlichen": 4726,
  "machines": 4727,
  "marine@@": 4728,
  "mic": 4729,
  "mid": 4730,
  "mischen": 4731,
  "mitglied": 4732,
  "mmed": 4733,
  "modern": 4734,
  "monitor": 4735,
  "most": 4736,
  "moti@@": 4737,
  "multi@@": 4738,
  "nam@@": 4739,
  "netze": 4740,
  "neue": 4741,
  "neugeborenes": 4742,
  "ney": 4743,
  "noti@@": 4744,
  "nächsten": 4745,
  "oberfläche": 4746,
  "oes": 4747,
  "ofen": 4748,
  "oms": 4749,
  "ora@@": 4750,
  "own": 4751,
  "paddle": 4752,
  "passenden": 4753,
  "passenger": 4754,
  "peering": 4755,
  "performers": 4756,
  "pferde@@": 4757,
  "photographed": 4758,
  "pillow": 4759,
  "pony": 4760,
  "pretty": 4761,
  "produkte": 4762,
  "push": 4763,
  "races": 4764,
  "rainbow": 4765,
  "rande": 4766,
  "receiving": 4767,
  "regi@@": 4768,
  "reifenschaukel": 4769,
  "ren": 4770,
  "rennens": 4771,
  "repairs": 4772,
  "rettungswesten": 4773,
  "rist@@": 4774,
  "rosafarbene": 4775,
  "rosafarbener": 4776,
  "rothaariges": 4777,
  "rows": 4778,
  "sat@@": 4779,
  "sbe@@": 4780,
  "scarves": 4781,
  "schaufeln": 4782,
  "schaukeln": 4783,
  "sche@@": 4784,
  "schirme": 4785,
  "schmutz": 4786,
  "schreiben": 4787,
  "schulkinder": 4788,
  "science": 4789,
  "seh@@": 4790,
  "sessel": 4791,
  "shakes": 4792,
  "share": 4793,
  "shine": 4794,
  "shining": 4795,
  "shops": 4796,
  "silber@@": 4797,
  "silly": 4798,
  "sit@@": 4799,
  "skiers": 4800,
  "skul@@": 4801,
  "slee@@": 4802,
  "slightly": 4803,
  "snowboardfahrer": 4804,
  "softball@@": 4805,
  "spielzeug-@@": 4806,
  "splashes": 4807,
  "spo@@": 4808,
  "spon@@": 4809,
  "spre@@": 4810,
  "spritzen": 4811,
  "sprüht": 4812,
  "steel": 4813,
  "stehender": 4814,
  "stellung": 4815,
  "stic": 4816,
  "stirnband": 4817,
  "stol@@": 4818,
  "straight": 4819,
  "street@@": 4820,
  "struktur": 4821,
  "stürzt": 4822,
  "tackle": 4823,
  "tal": 4824,
  "target": 4825,
  "tarn@@": 4826,
  "tauben": 4827,
  "taucher": 4828,
  "tea": 4829,
  "teilweise": 4830,
  "tete": 4831,
  "teten": 4832,
  "thedra@@": 4833,
  "tief@@": 4834,
  "tomat@@": 4835,
  "ton": 4836,
  "tower": 4837,
  "tracht": 4838,
  "trailer": 4839,
  "treiben": 4840,
  "trommeln": 4841,
  "trunk": 4842,
  "tun@@": 4843,
  "turm": 4844,
  "twir@@": 4845,
  "tätowi@@": 4846,
  "tür@@": 4847,
  "tüte": 4848,
  "tüten": 4849,
  "ue": 4850,
  "uhr": 4851,
  "unterschied@@": 4852,
  "upon": 4853,
  "verdeckt": 4854,
  "vorbeigeht": 4855,
  "vorüber@@": 4856,
  "wading": 4857,
  "weaving": 4858,
  "webt": 4859,
  "whilst": 4860,
  "wild": 4861,
  "wrestler": 4862,
  "wärts": 4863,
  "xi@@": 4864,
  "yed": 4865,
  "zubereitet": 4866,
  "zusammenge@@": 4867,
  "10": 4868,
  "9": 4869,
  "abends": 4870,
  "ai@@": 4871,
  "alt@@": 4872,
  "altes": 4873,
  "ansicht": 4874,
  "arzt": 4875,
  "asien": 4876,
  "attention": 4877,
  "attra@@": 4878,
  "auditorium": 4879,
  "aufmerksam": 4880,
  "autumn": 4881,
  "bandana": 4882,
  "barfüßige": 4883,
  "barrier": 4884,
  "basketballspiel": 4885,
  "bb@@": 4886,
  "bedeck@@": 4887,
  "bela@@": 4888,
  "bell@@": 4889,
  "bereit@@": 4890,
  "bilden": 4891,
  "bleachers": 4892,
  "boot@@": 4893,
  "boote": 4894,
  "boss": 4895,
  "bricht": 4896,
  "browsing": 4897,
  "buffet": 4898,
  "bull@@": 4899,
  "burgundy": 4900,
  "button@@": 4901,
  "bystanders": 4902,
  "bühnen@@": 4903,
  "bündel": 4904,
  "carts": 4905,
  "ceremony": 4906,
  "chainsaw": 4907,
  "chan@@": 4908,
  "check": 4909,
  "checks": 4910,
  "cheer": 4911,
  "chs": 4912,
  "cle@@": 4913,
  "co": 4914,
  "coaster": 4915,
  "comes": 4916,
  "company": 4917,
  "computerbildschirm": 4918,
  "consisting": 4919,
  "cool@@": 4920,
  "cowboy@@": 4921,
  "craw@@": 4922,
  "cup@@": 4923,
  "cups": 4924,
  "customer": 4925,
  "debris": 4926,
  "dimly": 4927,
  "diri@@": 4928,
  "diver": 4929,
  "doll": 4930,
  "dreh@@": 4931,
  "drill": 4932,
  "dusk": 4933,
  "dünn@@": 4934,
  "eggs": 4935,
  "einzu@@": 4936,
  "elefanten": 4937,
  "elmo": 4938,
  "enten": 4939,
  "enter@@": 4940,
  "entering": 4941,
  "entre@@": 4942,
  "ents": 4943,
  "erung": 4944,
  "es@@": 4945,
  "exam@@": 4946,
  "examines": 4947,
  "fallschirm@@": 4948,
  "farmer": 4949,
  "fass": 4950,
  "fetti": 4951,
  "feuerwehrleute": 4952,
  "filling": 4953,
  "film@@": 4954,
  "fingern": 4955,
  "floß": 4956,
  "flu@@": 4957,
  "flute": 4958,
  "four@@": 4959,
  "frü@@": 4960,
  "früchte": 4961,
  "fänger": 4962,
  "gebaut": 4963,
  "gefüllten": 4964,
  "gehender": 4965,
  "gelassen": 4966,
  "gelen@@": 4967,
  "gelt": 4968,
  "gemacht": 4969,
  "gemu@@": 4970,
  "gender": 4971,
  "geparkten": 4972,
  "gerä@@": 4973,
  "geschi@@": 4974,
  "gesichtsbemalung": 4975,
  "gestikuliert": 4976,
  "gestures": 4977,
  "gewickelt": 4978,
  "greyhound": 4979,
  "groceries": 4980,
  "halstuch": 4981,
  "handschuhe": 4982,
  "hart": 4983,
  "headed": 4984,
  "hindurch": 4985,
  "hocker": 4986,
  "hotdogs": 4987,
  "hänge@@": 4988,
  "hüpfen": 4989,
  "ic@@": 4990,
  "if": 4991,
  "im@@": 4992,
  "ines": 4993,
  "inform@@": 4994,
  "inlineskates": 4995,
  "inspi@@": 4996,
  "itä@@": 4997,
  "kasten": 4998,
  "kayaks": 4999,
  "kettensäge": 5000,
  "keys": 5001,
  "kies": 5002,
  "kitt@@": 5003,
  "kna@@": 5004,
  "knit": 5005,
  "ktem": 5006,
  "kunstwerke": 5007,
  "lage": 5008,
  "landing": 5009,
  "langhaarige": 5010,
  "last@@": 5011,
  "laufbahn": 5012,
  "lead": 5013,
  "lebensmittelgeschäft": 5014,
  "leckt": 5015,
  "leotard": 5016,
  "lernt": 5017,
  "leucht@@": 5018,
  "liert": 5019,
  "lifted": 5020,
  "lips": 5021,
  "locken": 5022,
  "lon@@": 5023,
  "luft@@": 5024,
  "läuferin": 5025,
  "maler": 5026,
  "man-@@": 5027,
  "manche": 5028,
  "markt@@": 5029,
  "marktplatz": 5030,
  "meeres": 5031,
  "meeres@@": 5032,
  "meeting": 5033,
  "menschen@@": 5034,
  "messy": 5035,
  "mini@@": 5036,
  "modell@@": 5037,
  "monopoly": 5038,
  "mop@@": 5039,
  "motocross-@@": 5040,
  "mul@@": 5041,
  "musli@@": 5042,
  "mülltonne": 5043,
  "nature": 5044,
  "nie@@": 5045,
  "observes": 5046,
  "off-@@": 5047,
  "official": 5048,
  "ohr": 5049,
  "ol": 5050,
  "olympischen": 5051,
  "ones": 5052,
  "oran@@": 5053,
  "order": 5054,
  "ou@@": 5055,
  "oven": 5056,
  "overweight": 5057,
  "ozean": 5058,
  "paddles": 5059,
  "papiere": 5060,
  "patro@@": 5061,
  "pfen": 5062,
  "pfer@@": 5063,
  "pflanze": 5064,
  "pflasterstraße": 5065,
  "pink@@": 5066,
  "pistole": 5067,
  "places": 5068,
  "plastiktüte": 5069,
  "pop@@": 5070,
  "praying": 5071,
  "profi@@": 5072,
  "promenade": 5073,
  "pt@@": 5074,
  "pult": 5075,
  "rafting": 5076,
  "rauch": 5077,
  "reg@@": 5078,
  "regal": 5079,
  "retrie@@": 5080,
  "ruhen": 5081,
  "rö@@": 5082,
  "sailing": 5083,
  "samen": 5084,
  "schienen": 5085,
  "schlu@@": 5086,
  "schne@@": 5087,
  "schnur": 5088,
  "schuss": 5089,
  "schutz": 5090,
  "schwarz@@": 5091,
  "schwert": 5092,
  "schä@@": 5093,
  "screaming": 5094,
  "seiten@@": 5095,
  "similar": 5096,
  "sks": 5097,
  "sneakers": 5098,
  "sno@@": 5099,
  "soda": 5100,
  "some@@": 5101,
  "sowie": 5102,
  "spazier@@": 5103,
  "spei@@": 5104,
  "spla@@": 5105,
  "spoon": 5106,
  "spotted": 5107,
  "ssage": 5108,
  "stance": 5109,
  "stap@@": 5110,
  "stehend": 5111,
  "still": 5112,
  "stimm@@": 5113,
  "stomach": 5114,
  "streich@@": 5115,
  "streicht": 5116,
  "strickmütze": 5117,
  "studying": 5118,
  "ständer": 5119,
  "stühle": 5120,
  "surfen": 5121,
  "säulen": 5122,
  "tail": 5123,
  "tat@@": 5124,
  "teen": 5125,
  "telephone": 5126,
  "tending": 5127,
  "tha@@": 5128,
  "ther": 5129,
  "tie@@": 5130,
  "tires": 5131,
  "tropical": 5132,
  "tten": 5133,
  "tter": 5134,
  "tur": 5135,
  "tut": 5136,
  "tv": 5137,
  "tänzerin": 5138,
  "türen": 5139,
  "u-bahn-station": 5140,
  "unbefestigte": 5141,
  "unterwäsche": 5142,
  "us@@": 5143,
  "venue": 5144,
  "verheiratetes": 5145,
  "verti@@": 5146,
  "viertel": 5147,
  "vil@@": 5148,
  "vorbereitet": 5149,
  "wandt": 5150,
  "wange": 5151,
  "waschbecken": 5152,
  "waterfront": 5153,
  "waterway": 5154,
  "welpe": 5155,
  "wheelbarrow": 5156,
  "wind": 5157,
  "wohl": 5158,
  "wra@@": 5159,
  "wü@@": 5160,
  "zes": 5161,
  "zeug@@": 5162,
  "-schild": 5163,
  "accompani@@": 5164,
  "ach": 5165,
  "afri@@": 5166,
  "ag@@": 5167,
  "alleyway": 5168,
  "amerikanischer": 5169,
  "anhänger": 5170,
  "ansieht": 5171,
  "appar@@": 5172,
  "applying": 5173,
  "arbeitern": 5174,
  "arcade": 5175,
  "arch": 5176,
  "are@@": 5177,
  "artigen": 5178,
  "atta@@": 5179,
  "attending": 5180,
  "aufgestellt": 5181,
  "ausgestellt": 5182,
  "auslage": 5183,
  "aussehen": 5184,
  "badeanzügen": 5185,
  "badezimmer": 5186,
  "bagpipes": 5187,
  "ballet": 5188,
  "bam@@": 5189,
  "bamboo": 5190,
  "baren": 5191,
  "barfüßi@@": 5192,
  "bea@@": 5193,
  "been": 5194,
  "begleitet": 5195,
  "beisammen": 5196,
  "bemalten": 5197,
  "benen": 5198,
  "betonwand": 5199,
  "betrie@@": 5200,
  "beverages": 5201,
  "bewegungen": 5202,
  "bikinis": 5203,
  "bit": 5204,
  "bite": 5205,
  "biting": 5206,
  "blankets": 5207,
  "blocken": 5208,
  "blockt": 5209,
  "blur@@": 5210,
  "boarder": 5211,
  "boarding": 5212,
  "boulder": 5213,
  "bra": 5214,
  "braun-weiße": 5215,
  "breakdance": 5216,
  "brenn@@": 5217,
  "bricks": 5218,
  "broch@@": 5219,
  "bräun@@": 5220,
  "burning": 5221,
  "c-@@": 5222,
  "cakes": 5223,
  "chel@@": 5224,
  "chicken": 5225,
  "chinesi@@": 5226,
  "cho@@": 5227,
  "ck-@@": 5228,
  "cken@@": 5229,
  "ckens": 5230,
  "clapping": 5231,
  "cola": 5232,
  "comm@@": 5233,
  "complete": 5234,
  "computern": 5235,
  "cooks": 5236,
  "coun@@": 5237,
  "countryside": 5238,
  "covers": 5239,
  "cri@@": 5240,
  "cti@@": 5241,
  "cycling": 5242,
  "deli@@": 5243,
  "deren": 5244,
  "dering": 5245,
  "design": 5246,
  "designs": 5247,
  "dor@@": 5248,
  "dorf": 5249,
  "down@@": 5250,
  "dress@@": 5251,
  "drive": 5252,
  "druck@@": 5253,
  "dudelsack": 5254,
  "dunklem": 5255,
  "dust": 5256,
  "dü@@": 5257,
  "einfahrt": 5258,
  "einhei@@": 5259,
  "erter": 5260,
  "excit@@": 5261,
  "exercise": 5262,
  "exhibit": 5263,
  "fair@@": 5264,
  "far": 5265,
  "fashioned": 5266,
  "feath@@": 5267,
  "feder@@": 5268,
  "fischer@@": 5269,
  "fontäne": 5270,
  "forehead": 5271,
  "freundin": 5272,
  "fru@@": 5273,
  "gal@@": 5274,
  "games": 5275,
  "gegenständen": 5276,
  "gehör@@": 5277,
  "gemein@@": 5278,
  "gende": 5279,
  "genommen": 5280,
  "gent@@": 5281,
  "gericht": 5282,
  "gerin": 5283,
  "geschla@@": 5284,
  "gesichtern": 5285,
  "gesp@@": 5286,
  "gestreifter": 5287,
  "geöffneten": 5288,
  "gipfel": 5289,
  "give": 5290,
  "gle@@": 5291,
  "glänzenden": 5292,
  "golfball": 5293,
  "graph@@": 5294,
  "grö@@": 5295,
  "gymnastics": 5296,
  "gäste": 5297,
  "halt": 5298,
  "halt@@": 5299,
  "ham": 5300,
  "handing": 5301,
  "heading": 5302,
  "heißluftballon": 5303,
  "hellhäutige": 5304,
  "hemd@@": 5305,
  "hen@@": 5306,
  "herbst@@": 5307,
  "herumstehen": 5308,
  "herz@@": 5309,
  "high@@": 5310,
  "highway": 5311,
  "hinderni@@": 5312,
  "hn": 5313,
  "hnen": 5314,
  "hula-hoop": 5315,
  "hunder@@": 5316,
  "hundes": 5317,
  "hä@@": 5318,
  "ies": 5319,
  "inspects": 5320,
  "interess@@": 5321,
  "iron": 5322,
  "ities": 5323,
  "iting": 5324,
  "jackett": 5325,
  "jenga": 5326,
  "jet": 5327,
  "juice": 5328,
  "kasse": 5329,
  "ke-@@": 5330,
  "keln": 5331,
  "klar@@": 5332,
  "klaren": 5333,
  "knall@@": 5334,
  "knees": 5335,
  "knife": 5336,
  "knöpfen": 5337,
  "komp@@": 5338,
  "kreide": 5339,
  "kreuz": 5340,
  "kti@@": 5341,
  "köpfe": 5342,
  "kör@@": 5343,
  "kümmert": 5344,
  "lecture": 5345,
  "leitung": 5346,
  "lers": 5347,
  "ley": 5348,
  "lie": 5349,
  "lila@@": 5350,
  "ling@@": 5351,
  "lk@@": 5352,
  "load": 5353,
  "long-sleeve": 5354,
  "län@@": 5355,
  "maschendrahtzaun": 5356,
  "mcdonald": 5357,
  "merchandise": 5358,
  "mikrof@@": 5359,
  "mil@@": 5360,
  "mischt": 5361,
  "mix@@": 5362,
  "mixer": 5363,
  "mmen": 5364,
  "mming": 5365,
  "mmt": 5366,
  "modi@@": 5367,
  "motorrad@@": 5368,
  "mou@@": 5369,
  "mountainbiker": 5370,
  "movie": 5371,
  "mä@@": 5372,
  "männliches": 5373,
  "nebel": 5374,
  "nee@@": 5375,
  "neh@@": 5376,
  "newly": 5377,
  "newspapers": 5378,
  "nieder": 5379,
  "noten@@": 5380,
  "obst@@": 5381,
  "offi@@": 5382,
  "olo@@": 5383,
  "olympi@@": 5384,
  "olympics": 5385,
  "ong": 5386,
  "oranger": 5387,
  "ord@@": 5388,
  "ously": 5389,
  "ow@@": 5390,
  "ox@@": 5391,
  "paare": 5392,
  "padd@@": 5393,
  "paperwork": 5394,
  "parachut@@": 5395,
  "parcours": 5396,
  "passt": 5397,
  "pat@@": 5398,
  "patterned": 5399,
  "person@@": 5400,
  "pfe": 5401,
  "pfo@@": 5402,
  "pigtails": 5403,
  "pillows": 5404,
  "placing": 5405,
  "play@@": 5406,
  "popcorn": 5407,
  "presenting": 5408,
  "professor": 5409,
  "präsentation": 5410,
  "prüft": 5411,
  "pudel": 5412,
  "puppies": 5413,
  "quad": 5414,
  "radio": 5415,
  "range": 5416,
  "recei@@": 5417,
  "reihen": 5418,
  "rennfahrer": 5419,
  "repairing": 5420,
  "repor@@": 5421,
  "restaurant@@": 5422,
  "rickshaw": 5423,
  "ringer": 5424,
  "rollerblading": 5425,
  "rollerskates": 5426,
  "rosa-@@": 5427,
  "rot-weiß-@@": 5428,
  "rutschen": 5429,
  "saiten@@": 5430,
  "sam": 5431,
  "sandigen": 5432,
  "satz@@": 5433,
  "schafe": 5434,
  "schale": 5435,
  "schat@@": 5436,
  "schlaf@@": 5437,
  "schlafen@@": 5438,
  "schlag@@": 5439,
  "schlei@@": 5440,
  "schleife": 5441,
  "schmi@@": 5442,
  "schneeanzug": 5443,
  "schnell@@": 5444,
  "schnitt": 5445,
  "schnitzt": 5446,
  "schnüffelt": 5447,
  "schwebt": 5448,
  "schwimmweste": 5449,
  "schü@@": 5450,
  "schüsseln": 5451,
  "scooters": 5452,
  "scouts": 5453,
  "scre@@": 5454,
  "seem": 5455,
  "selbst": 5456,
  "sele@@": 5457,
  "serves": 5458,
  "shadows": 5459,
  "shirted": 5460,
  "shoppers": 5461,
  "show@@": 5462,
  "sive": 5463,
  "skaters": 5464,
  "sla@@": 5465,
  "snowsuit": 5466,
  "sonnenschirm": 5467,
  "spanish": 5468,
  "spielerisch": 5469,
  "spit@@": 5470,
  "sprungbrett": 5471,
  "ssel": 5472,
  "stahl@@": 5473,
  "stall": 5474,
  "stand@@": 5475,
  "stare": 5476,
  "statt@@": 5477,
  "steu@@": 5478,
  "stie@@": 5479,
  "stin": 5480,
  "stops": 5481,
  "strauß": 5482,
  "stroh@@": 5483,
  "stän@@": 5484,
  "stößt": 5485,
  "suitcase": 5486,
  "sung": 5487,
  "sweeps": 5488,
  "sü@@": 5489,
  "ta": 5490,
  "tablett": 5491,
  "tackling": 5492,
  "tape": 5493,
  "tarnkleidung": 5494,
  "taucher@@": 5495,
  "teal": 5496,
  "teile": 5497,
  "tem@@": 5498,
  "termin@@": 5499,
  "terrier": 5500,
  "thumbs": 5501,
  "tiert": 5502,
  "tired": 5503,
  "tische": 5504,
  "tossing": 5505,
  "touches": 5506,
  "tour": 5507,
  "traditionellen": 5508,
  "train@@": 5509,
  "trainingsanzug": 5510,
  "trauri@@": 5511,
  "tray": 5512,
  "treppenstufen": 5513,
  "trocken@@": 5514,
  "tt": 5515,
  "tted": 5516,
  "turnier": 5517,
  "tutu": 5518,
  "tätowierung": 5519,
  "tätowierungen": 5520,
  "tü@@": 5521,
  "türki@@": 5522,
  "ultimate": 5523,
  "umpire": 5524,
  "uren": 5525,
  "vergnügungspark": 5526,
  "verschneite": 5527,
  "videospiel": 5528,
  "viol@@": 5529,
  "visible": 5530,
  "visiting": 5531,
  "vorstellung": 5532,
  "waffel": 5533,
  "wake@@": 5534,
  "walmart": 5535,
  "wares": 5536,
  "warn@@": 5537,
  "wassers": 5538,
  "watet": 5539,
  "wegs": 5540,
  "weihna@@": 5541,
  "weil": 5542,
  "weit@@": 5543,
  "werbe@@": 5544,
  "wir": 5545,
  "wires": 5546,
  "won@@": 5547,
  "wrap": 5548,
  "zel@@": 5549,
  "zement": 5550,
  "zeug": 5551,
  "zeuge": 5552,
  "zombi@@": 5553,
  "zurück@@": 5554,
  "zügen": 5555,
  "öl@@": 5556,
  "7": 5557,
  "abgeworfen": 5558,
  "acti@@": 5559,
  "adjusting": 5560,
  "adv@@": 5561,
  "african-american": 5562,
  "afroamerikanischer": 5563,
  "aller": 5564,
  "alling": 5565,
  "ampel": 5566,
  "ander@@": 5567,
  "arme@@": 5568,
  "arri@@": 5569,
  "artwork": 5570,
  "asians": 5571,
  "assem@@": 5572,
  "ations": 5573,
  "auge": 5574,
  "ausdruck": 5575,
  "babys": 5576,
  "backdrop": 5577,
  "befin@@": 5578,
  "beige@@": 5579,
  "bekleidet": 5580,
  "bekleidete": 5581,
  "bekleideter": 5582,
  "bend": 5583,
  "besteht": 5584,
  "bir@@": 5585,
  "black-haired": 5586,
  "blood": 5587,
  "blätter@@": 5588,
  "bmx-fahrer": 5589,
  "bordstein": 5590,
  "bouquet": 5591,
  "braunhaariger": 5592,
  "brettspiel": 5593,
  "brü@@": 5594,
  "budd@@": 5595,
  "bulldozer": 5596,
  "cage": 5597,
  "camping": 5598,
  "carefully": 5599,
  "cel@@": 5600,
  "celebration": 5601,
  "chatting": 5602,
  "cheek": 5603,
  "chess": 5604,
  "chteten": 5605,
  "ckets": 5606,
  "closely": 5607,
  "constru@@": 5608,
  "couples": 5609,
  "creek": 5610,
  "crossed": 5611,
  "crouched": 5612,
  "ctor": 5613,
  "cy": 5614,
  "darbietung": 5615,
  "ddle": 5616,
  "ddy": 5617,
  "department": 5618,
  "descent": 5619,
  "diner": 5620,
  "dir@@": 5621,
  "dit@@": 5622,
  "diti@@": 5623,
  "dives": 5624,
  "dot": 5625,
  "drawn": 5626,
  "drib@@": 5627,
  "dritte": 5628,
  "drän@@": 5629,
  "drängt": 5630,
  "dung": 5631,
  "dunkelten": 5632,
  "dusty": 5633,
  "eben@@": 5634,
  "ee": 5635,
  "eglasses": 5636,
  "eimern": 5637,
  "eini@@": 5638,
  "einkaufstasche": 5639,
  "eiscreme": 5640,
  "elev@@": 5641,
  "eller": 5642,
  "entgegen": 5643,
  "entgegen@@": 5644,
  "enthusia@@": 5645,
  "erende": 5646,
  "erklimmen": 5647,
  "ertem": 5648,
  "ethni@@": 5649,
  "explo@@": 5650,
  "fashion": 5651,
  "fecht@@": 5652,
  "feu@@": 5653,
  "feuerwehrauto": 5654,
  "film": 5655,
  "finished": 5656,
  "firefighter": 5657,
  "fischt": 5658,
  "flauschiger": 5659,
  "floats": 5660,
  "focused": 5661,
  "fore@@": 5662,
  "formt": 5663,
  "fort": 5664,
  "frauen@@": 5665,
  "freizeit@@": 5666,
  "freude": 5667,
  "freun@@": 5668,
  "fron@@": 5669,
  "früh@@": 5670,
  "fußballdress": 5671,
  "fußgängern": 5672,
  "füllen": 5673,
  "gathers": 5674,
  "gebü@@": 5675,
  "gefle@@": 5676,
  "geländewagen": 5677,
  "gepunkteten": 5678,
  "gerichtet": 5679,
  "gescho@@": 5680,
  "gesehen": 5681,
  "gesen@@": 5682,
  "gesprungen": 5683,
  "gesäum@@": 5684,
  "gew@@": 5685,
  "grill@@": 5686,
  "grills": 5687,
  "grün@@": 5688,
  "gurt": 5689,
  "hafen": 5690,
  "haired": 5691,
  "hallen@@": 5692,
  "hamburger": 5693,
  "heit": 5694,
  "herren": 5695,
  "hispani@@": 5696,
  "hit@@": 5697,
  "hle": 5698,
  "hohe": 5699,
  "hoher": 5700,
  "hol": 5701,
  "holzbank": 5702,
  "hot@@": 5703,
  "hum@@": 5704,
  "hur@@": 5705,
  "händchen": 5706,
  "ig": 5707,
  "ige": 5708,
  "ils": 5709,
  "indem": 5710,
  "injured": 5711,
  "innenstadt": 5712,
  "involved": 5713,
  "ipod": 5714,
  "iti@@": 5715,
  "japan": 5716,
  "japan@@": 5717,
  "japanischen": 5718,
  "jean@@": 5719,
  "jeder": 5720,
  "jugendlichen": 5721,
  "jun@@": 5722,
  "jüngerer": 5723,
  "kal@@": 5724,
  "kayaking": 5725,
  "kenn@@": 5726,
  "kerle": 5727,
  "kings": 5728,
  "kit@@": 5729,
  "kittel": 5730,
  "klat@@": 5731,
  "kleineren": 5732,
  "kleinkinder": 5733,
  "kol@@": 5734,
  "kollegen": 5735,
  "kop@@": 5736,
  "kopfschmuck": 5737,
  "kostüme": 5738,
  "kran": 5739,
  "kun@@": 5740,
  "ky": 5741,
  "kühl@@": 5742,
  "laborkittel": 5743,
  "langärmeligen": 5744,
  "larger": 5745,
  "laundromat": 5746,
  "leaf": 5747,
  "leap": 5748,
  "learning": 5749,
  "leben@@": 5750,
  "lebensmitteln": 5751,
  "leuchtenden": 5752,
  "lieferwagen": 5753,
  "liege@@": 5754,
  "ließt": 5755,
  "lifts": 5756,
  "lighted": 5757,
  "link": 5758,
  "location": 5759,
  "logs": 5760,
  "loo@@": 5761,
  "loom": 5762,
  "lou@@": 5763,
  "lum@@": 5764,
  "löschen": 5765,
  "magazines": 5766,
  "maneu@@": 5767,
  "marathon@@": 5768,
  "mark": 5769,
  "med": 5770,
  "meet": 5771,
  "miami": 5772,
  "mid-@@": 5773,
  "militäri@@": 5774,
  "miniat@@": 5775,
  "misch@@": 5776,
  "mittelalter@@": 5777,
  "mobil@@": 5778,
  "mop": 5779,
  "morning": 5780,
  "motorcyclists": 5781,
  "motorized": 5782,
  "mower": 5783,
  "mt": 5784,
  "mug": 5785,
  "mädchen@@": 5786,
  "männer@@": 5787,
  "männlichen": 5788,
  "möglicherweise": 5789,
  "nachbar@@": 5790,
  "nail": 5791,
  "namen": 5792,
  "o-@@": 5793,
  "oberen": 5794,
  "obststand": 5795,
  "ols": 5796,
  "oned": 5797,
  "opens": 5798,
  "orientalische": 5799,
  "papp@@": 5800,
  "parachute": 5801,
  "passersby": 5802,
  "patch": 5803,
  "pfanne": 5804,
  "pferdeschwanz": 5805,
  "pflan@@": 5806,
  "picks": 5807,
  "pinkfarbener": 5808,
  "placed": 5809,
  "planting": 5810,
  "playfully": 5811,
  "plüsch@@": 5812,
  "politi@@": 5813,
  "pon@@": 5814,
  "ponch@@": 5815,
  "ponytail": 5816,
  "poor": 5817,
  "portrait": 5818,
  "posed": 5819,
  "positi@@": 5820,
  "power": 5821,
  "practices": 5822,
  "prin@@": 5823,
  "printed": 5824,
  "präsentiert": 5825,
  "punkt": 5826,
  "puppen": 5827,
  "pä@@": 5828,
  "rally": 5829,
  "rapids": 5830,
  "rauch@@": 5831,
  "recht": 5832,
  "rechte": 5833,
  "record": 5834,
  "reichen": 5835,
  "reit@@": 5836,
  "rice": 5837,
  "richtungen": 5838,
  "rie@@": 5839,
  "rodeo-@@": 5840,
  "rollen": 5841,
  "rollerskating": 5842,
  "roun@@": 5843,
  "row@@": 5844,
  "rückwärts": 5845,
  "s.": 5846,
  "sack@@": 5847,
  "sammeln": 5848,
  "scape": 5849,
  "schachtel": 5850,
  "schar@@": 5851,
  "schem": 5852,
  "schild@@": 5853,
  "schlagmann": 5854,
  "schlauchboot": 5855,
  "schneeh@@": 5856,
  "schnei@@": 5857,
  "schot@@": 5858,
  "schwester": 5859,
  "schütteln": 5860,
  "seattle": 5861,
  "segel@@": 5862,
  "seltsamen": 5863,
  "sem@@": 5864,
  "serviert": 5865,
  "shoreline": 5866,
  "sicherheits@@": 5867,
  "sil@@": 5868,
  "silberfarbenen": 5869,
  "sims": 5870,
  "skat@@": 5871,
  "skateboard-@@": 5872,
  "skyline": 5873,
  "sl@@": 5874,
  "snacks": 5875,
  "snowshoes": 5876,
  "sparring": 5877,
  "speak": 5878,
  "spielplatz@@": 5879,
  "sprecher": 5880,
  "spärlich": 5881,
  "ssel@@": 5882,
  "sser": 5883,
  "st.": 5884,
  "stal@@": 5885,
  "state": 5886,
  "stati@@": 5887,
  "steg": 5888,
  "stens": 5889,
  "stiefel": 5890,
  "stle": 5891,
  "strange": 5892,
  "straßenverkäufer": 5893,
  "strecken": 5894,
  "streichen": 5895,
  "sty": 5896,
  "stür@@": 5897,
  "stützt": 5898,
  "sunlight": 5899,
  "supplies": 5900,
  "surf@@": 5901,
  "surgery": 5902,
  "suspenders": 5903,
  "swimmingpool": 5904,
  "swimsuits": 5905,
  "säge": 5906,
  "säugling": 5907,
  "säule": 5908,
  "süßigkeiten": 5909,
  "teens": 5910,
  "teilnehmer": 5911,
  "telefon@@": 5912,
  "thers": 5913,
  "ticket": 5914,
  "tights": 5915,
  "tiny": 5916,
  "toilet@@": 5917,
  "tomaten": 5918,
  "torch": 5919,
  "touch": 5920,
  "tran@@": 5921,
  "transportiert": 5922,
  "traveling": 5923,
  "treppen@@": 5924,
  "tricycle": 5925,
  "trip": 5926,
  "trolley": 5927,
  "tuni@@": 5928,
  "turnschuhen": 5929,
  "turquoise": 5930,
  "tzt": 5931,
  "töpfer@@": 5932,
  "türöffnung": 5933,
  "uchen": 5934,
  "underwear": 5935,
  "unk": 5936,
  "unterricht": 5937,
  "unterschiedlichen": 5938,
  "urein@@": 5939,
  "verkaufsstand": 5940,
  "verkehrs@@": 5941,
  "verla@@": 5942,
  "verteilt": 5943,
  "verwenden": 5944,
  "viel@@": 5945,
  "vol@@": 5946,
  "vorderseite": 5947,
  "vorführung": 5948,
  "wakeboard": 5949,
  "ware": 5950,
  "wasch@@": 5951,
  "washer": 5952,
  "wasserrutsche": 5953,
  "watched": 5954,
  "ways": 5955,
  "weap@@": 5956,
  "weather": 5957,
  "weihnachtsmann": 5958,
  "weihnachtsmann@@": 5959,
  "weiter": 5960,
  "wered": 5961,
  "wette": 5962,
  "wning": 5963,
  "wohner": 5964,
  "workout": 5965,
  "wunderschöne": 5966,
  "wä@@": 5967,
  "yarn": 5968,
  "yel@@": 5969,
  "zahl": 5970,
  "zebra@@": 5971,
  "zelt@@": 5972,
  "zoo": 5973,
  "zugs": 5974,
  "zunehmen": 5975,
  "ähnlichen": 5976,
  "örtlichen": 5977,
  "überall": 5978,
  "übung": 5979,
  "übungen": 5980,
  "00@@": 5981,
  "abgebildet": 5982,
  "abgestellt": 5983,
  "activity": 5984,
  "afrikanischen": 5985,
  "amidst": 5986,
  "amüsiert": 5987,
  "ands": 5988,
  "aneinander": 5989,
  "ang": 5990,
  "angeboten": 5991,
  "angebracht": 5992,
  "angemal@@": 5993,
  "anzeige": 5994,
  "apart": 5995,
  "approaches": 5996,
  "arabi@@": 5997,
  "arran@@": 5998,
  "asi@@": 5999,
  "asia": 6000,
  "asphalt": 6001,
  "athle@@": 6002,
  "au": 6003,
  "aufgeregt": 6004,
  "aufgereiht": 6005,
  "ausflug": 6006,
  "ausgestreckt": 6007,
  "automaten": 6008,
  "axt": 6009,
  "babies": 6010,
  "bag@@": 6011,
  "baseballschläger": 6012,
  "batman": 6013,
  "bauwerk": 6014,
  "befesti@@": 6015,
  "beladen": 6016,
  "beleu@@": 6017,
  "belts": 6018,
  "bergsteiger": 6019,
  "bers": 6020,
  "besitz": 6021,
  "bestellen": 6022,
  "bevor": 6023,
  "bikini-@@": 6024,
  "bildern": 6025,
  "bildes": 6026,
  "billard": 6027,
  "bindet": 6028,
  "blasen@@": 6029,
  "boden@@": 6030,
  "bootes": 6031,
  "bor": 6032,
  "branches": 6033,
  "braut@@": 6034,
  "break@@": 6035,
  "brin@@": 6036,
  "brother": 6037,
  "brüne@@": 6038,
  "buil@@": 6039,
  "burg": 6040,
  "burgunder@@": 6041,
  "bö@@": 6042,
  "camera@@": 6043,
  "canvas": 6044,
  "cast": 6045,
  "casually": 6046,
  "celebrate": 6047,
  "chalkboard": 6048,
  "challen@@": 6049,
  "chee@@": 6050,
  "cheese": 6051,
  "chemi@@": 6052,
  "chips": 6053,
  "chopping": 6054,
  "cial": 6055,
  "classic": 6056,
  "clim@@": 6057,
  "clu@@": 6058,
  "coa@@": 6059,
  "coca-@@": 6060,
  "collared": 6061,
  "colum@@": 6062,
  "condu@@": 6063,
  "contraption": 6064,
  "cop": 6065,
  "creating": 6066,
  "ctions": 6067,
  "cul@@": 6068,
  "cute": 6069,
  "cyc@@": 6070,
  "decorative": 6071,
  "demonstra@@": 6072,
  "desc@@": 6073,
  "digital": 6074,
  "displaying": 6075,
  "displays": 6076,
  "dle": 6077,
  "dlichen": 6078,
  "done": 6079,
  "dor": 6080,
  "dosen": 6081,
  "dreirad": 6082,
  "driveway": 6083,
  "du": 6084,
  "dut@@": 6085,
  "dämmerung": 6086,
  "earphones": 6087,
  "ebenfalls": 6088,
  "ehen": 6089,
  "eil": 6090,
  "einfa@@": 6091,
  "eing": 6092,
  "eingeschlafen": 6093,
  "eisenbahn@@": 6094,
  "embracing": 6095,
  "emer@@": 6096,
  "ends": 6097,
  "engel": 6098,
  "entfernung": 6099,
  "entu@@": 6100,
  "erdhügel": 6101,
  "erle@@": 6102,
  "erreichen": 6103,
  "erzeugnisse": 6104,
  "eten": 6105,
  "fabrik": 6106,
  "facility": 6107,
  "farbiger": 6108,
  "fasst": 6109,
  "feat@@": 6110,
  "fertigen": 6111,
  "ffel": 6112,
  "fier": 6113,
  "finishing": 6114,
  "fische": 6115,
  "fit@@": 6116,
  "fitness@@": 6117,
  "flei@@": 6118,
  "fliegenden": 6119,
  "floo@@": 6120,
  "foot@@": 6121,
  "freizeitpark": 6122,
  "fremden": 6123,
  "friedens@@": 6124,
  "frisbee-scheibe": 6125,
  "friseur": 6126,
  "frozen": 6127,
  "fröhlich": 6128,
  "fte": 6129,
  "fur": 6130,
  "furry": 6131,
  "fußballmannschaft": 6132,
  "fächer": 6133,
  "gallery": 6134,
  "gaze": 6135,
  "gazes": 6136,
  "gefolgt": 6137,
  "gegen@@": 6138,
  "gehenden": 6139,
  "geschnitten": 6140,
  "geschäf@@": 6141,
  "gie": 6142,
  "gitarren": 6143,
  "gitarristen": 6144,
  "goat": 6145,
  "gradu@@": 6146,
  "grand": 6147,
  "gray-haired": 6148,
  "green@@": 6149,
  "grube": 6150,
  "größeren": 6151,
  "grü@@": 6152,
  "halloween": 6153,
  "halskette": 6154,
  "handrail": 6155,
  "hat@@": 6156,
  "hawai@@": 6157,
  "headdress": 6158,
  "hear@@": 6159,
  "helicopter": 6160,
  "herkunft": 6161,
  "herrn": 6162,
  "hiding": 6163,
  "hike": 6164,
  "hills": 6165,
  "hochzu@@": 6166,
  "holzboden": 6167,
  "hr": 6168,
  "hren": 6169,
  "hren@@": 6170,
  "hüb@@": 6171,
  "hügel@@": 6172,
  "hüpf@@": 6173,
  "i-@@": 6174,
  "icy": 6175,
  "identi@@": 6176,
  "ien": 6177,
  "ilen": 6178,
  "in-@@": 6179,
  "incline": 6180,
  "iner": 6181,
  "ining": 6182,
  "inline": 6183,
  "interagi@@": 6184,
  "intere@@": 6185,
  "involving": 6186,
  "ität": 6187,
  "jahr@@": 6188,
  "juggles": 6189,
  "kabine": 6190,
  "kampfsport@@": 6191,
  "kari@@": 6192,
  "kartons": 6193,
  "kastanien@@": 6194,
  "kauert": 6195,
  "kiosk": 6196,
  "klappstuhl": 6197,
  "kne@@": 6198,
  "ko": 6199,
  "kom@@": 6200,
  "konferenz": 6201,
  "kraft": 6202,
  "krankenhaus": 6203,
  "kratzt": 6204,
  "kräfte": 6205,
  "krü@@": 6206,
  "ktion@@": 6207,
  "kurze": 6208,
  "kurzem": 6209,
  "käfig": 6210,
  "kö@@": 6211,
  "körper@@": 6212,
  "kür@@": 6213,
  "la": 6214,
  "labra@@": 6215,
  "lachende": 6216,
  "lagerfeuer": 6217,
  "landstraße": 6218,
  "late": 6219,
  "laun@@": 6220,
  "leaf@@": 6221,
  "leger": 6222,
  "lens": 6223,
  "lerin": 6224,
  "less": 6225,
  "lets": 6226,
  "letz@@": 6227,
  "lighting": 6228,
  "lings": 6229,
  "lining": 6230,
  "lled": 6231,
  "llen": 6232,
  "located": 6233,
  "loh@@": 6234,
  "luftballon": 6235,
  "lung": 6236,
  "lächelnden": 6237,
  "läufern": 6238,
  "lü@@": 6239,
  "ma": 6240,
  "mach@@": 6241,
  "maintenance": 6242,
  "make@@": 6243,
  "march": 6244,
  "mark@@": 6245,
  "marker": 6246,
  "mast": 6247,
  "mate": 6248,
  "maul@@": 6249,
  "mcdonalds": 6250,
  "mega@@": 6251,
  "meisten": 6252,
  "mem@@": 6253,
  "menschenansammlung": 6254,
  "mexican": 6255,
  "mm": 6256,
  "motorhaube": 6257,
  "musikgruppe": 6258,
  "mülleimer": 6259,
  "namens": 6260,
  "namensschild": 6261,
  "nasser": 6262,
  "natur@@": 6263,
  "nel": 6264,
  "nen@@": 6265,
  "neten": 6266,
  "news": 6267,
  "niedrigen": 6268,
  "nor@@": 6269,
  "notebook": 6270,
  "numbers": 6271,
  "nur@@": 6272,
  "nurses": 6273,
  "nächt@@": 6274,
  "obdachloser": 6275,
  "od": 6276,
  "on-@@": 6277,
  "op-@@": 6278,
  "open-@@": 6279,
  "orche@@": 6280,
  "oren": 6281,
  "pads": 6282,
  "partie": 6283,
  "peeking": 6284,
  "pel": 6285,
  "perlen": 6286,
  "pers": 6287,
  "picknick@@": 6288,
  "pin": 6289,
  "pins": 6290,
  "platz@@": 6291,
  "played": 6292,
  "ple": 6293,
  "plo@@": 6294,
  "pool@@": 6295,
  "potato": 6296,
  "pots": 6297,
  "prie@@": 6298,
  "process": 6299,
  "products": 6300,
  "progra@@": 6301,
  "proje@@": 6302,
  "prote@@": 6303,
  "put@@": 6304,
  "qui@@": 6305,
  "quickly": 6306,
  "racers": 6307,
  "regenbogen@@": 6308,
  "regnerischen": 6309,
  "reini@@": 6310,
  "renaiss@@": 6311,
  "reparat@@": 6312,
  "rettung@@": 6313,
  "roadside": 6314,
  "robo@@": 6315,
  "rollern": 6316,
  "roo@@": 6317,
  "rooftop": 6318,
  "ruhigem": 6319,
  "rut@@": 6320,
  "rückseite": 6321,
  "rücksitz": 6322,
  "saris": 6323,
  "scaffold": 6324,
  "scar@@": 6325,
  "scending": 6326,
  "schaulusti@@": 6327,
  "schie@@": 6328,
  "schlan@@": 6329,
  "schlendert": 6330,
  "schlü@@": 6331,
  "schminkt": 6332,
  "schna@@": 6333,
  "schneeschuhen": 6334,
  "schneit": 6335,
  "schutzausrüstung": 6336,
  "schutzkleidung": 6337,
  "schwarzhaarige": 6338,
  "schwingen": 6339,
  "schür@@": 6340,
  "seagul@@": 6341,
  "second": 6342,
  "seni@@": 6343,
  "series": 6344,
  "serve": 6345,
  "shape": 6346,
  "shar@@": 6347,
  "shing": 6348,
  "shor@@": 6349,
  "sicherheit@@": 6350,
  "side@@": 6351,
  "sideways": 6352,
  "sie@@": 6353,
  "sieg": 6354,
  "single": 6355,
  "sko@@": 6356,
  "skol@@": 6357,
  "sn@@": 6358,
  "soll": 6359,
  "speaker": 6360,
  "spect@@": 6361,
  "sper@@": 6362,
  "spider@@": 6363,
  "spiegel@@": 6364,
  "spiele": 6365,
  "spongebo@@": 6366,
  "sprayed": 6367,
  "ssaal": 6368,
  "ssive": 6369,
  "start@@": 6370,
  "staubigen": 6371,
  "stellten": 6372,
  "stelzen": 6373,
  "stepping": 6374,
  "sterten": 6375,
  "stiften": 6376,
  "stilts": 6377,
  "stolz": 6378,
  "ston@@": 6379,
  "storm": 6380,
  "strahl@@": 6381,
  "stroke": 6382,
  "stump": 6383,
  "stur@@": 6384,
  "surfs": 6385,
  "swagen": 6386,
  "symbol": 6387,
  "tackelt": 6388,
  "tails": 6389,
  "talent": 6390,
  "tation": 6391,
  "tend": 6392,
  "teppi@@": 6393,
  "the@@": 6394,
  "thin@@": 6395,
  "those": 6396,
  "thumb": 6397,
  "toddlers": 6398,
  "tournament": 6399,
  "trans@@": 6400,
  "transportation": 6401,
  "trashcan": 6402,
  "tribal": 6403,
  "trifft": 6404,
  "trink@@": 6405,
  "tug@@": 6406,
  "ty@@": 6407,
  "ungewöhnlichen": 6408,
  "unordentlichen": 6409,
  "unteren": 6410,
  "unterrichtet": 6411,
  "upward": 6412,
  "val": 6413,
  "valley": 6414,
  "verbun@@": 6415,
  "vergnügt": 6416,
  "verk@@": 6417,
  "verkauf@@": 6418,
  "verletz@@": 6419,
  "verzierten": 6420,
  "violett": 6421,
  "vortrag": 6422,
  "walked": 6423,
  "wanderweg": 6424,
  "wanne": 6425,
  "waren@@": 6426,
  "washes": 6427,
  "webstuhl": 6428,
  "wehren": 6429,
  "wet@@": 6430,
  "whom": 6431,
  "wilden": 6432,
  "windhund": 6433,
  "wns": 6434,
  "wolke": 6435,
  "wolken": 6436,
  "work@@": 6437,
  "workshop": 6438,
  "wäl@@": 6439,
  "ya@@": 6440,
  "zauns": 6441,
  "zeich@@": 6442,
  "zement@@": 6443,
  "zens": 6444,
  "ziegelsteinen": 6445,
  "ziegelwand": 6446,
  "ziellinie": 6447,
  "zigar@@": 6448,
  "zo@@": 6449,
  "zucker@@": 6450,
  "zylinder": 6451,
  "zz@@": 6452,
  "ßer": 6453,
  "ält": 6454,
  "ärmello@@": 6455,
  "ät": 6456,
  "öffent@@": 6457,
  "öffentlichkeit": 6458,
  "übergewichtiger": 6459,
  "-hemd": 6460,
  "able": 6461,
  "absperrung": 6462,
  "acce@@": 6463,
  "adjusts": 6464,
  "afternoon": 6465,
  "ak@@": 6466,
  "akten@@": 6467,
  "akusti@@": 6468,
  "ales": 6469,
  "alko@@": 6470,
  "almost": 6471,
  "alt": 6472,
  "amp@@": 6473,
  "angezogener": 6474,
  "anhaben": 6475,
  "apfel": 6476,
  "appro@@": 6477,
  "aprons": 6478,
  "asiat": 6479,
  "astro@@": 6480,
  "aters": 6481,
  "ationen": 6482,
  "atm": 6483,
  "attractive": 6484,
  "attraktive": 6485,
  "aufgaben": 6486,
  "ausgestre@@": 6487,
  "ausgezogen": 6488,
  "ausländi@@": 6489,
  "aussehendes": 6490,
  "aussicht": 6491,
  "autobahn": 6492,
  "außenbereich": 6493,
  "backflip": 6494,
  "ballon@@": 6495,
  "barbe@@": 6496,
  "barren": 6497,
  "baseball-@@": 6498,
  "bask@@": 6499,
  "basket@@": 6500,
  "bast@@": 6501,
  "bath@@": 6502,
  "bathtub": 6503,
  "bauernmarkt": 6504,
  "beamte": 6505,
  "bedienen": 6506,
  "bedruckten": 6507,
  "befahrenen": 6508,
  "begeisterung": 6509,
  "begins": 6510,
  "beleuchtet": 6511,
  "belongings": 6512,
  "bemal@@": 6513,
  "bends": 6514,
  "beret": 6515,
  "besitz@@": 6516,
  "besucht": 6517,
  "betrachter": 6518,
  "betreten": 6519,
  "bewaldeten": 6520,
  "bicycling": 6521,
  "bikin@@": 6522,
  "binden": 6523,
  "blue-@@": 6524,
  "bmx-@@": 6525,
  "bohrmaschine": 6526,
  "booths": 6527,
  "bouncing": 6528,
  "bowling@@": 6529,
  "brass": 6530,
  "breakdancing": 6531,
  "bruder": 6532,
  "brunn@@": 6533,
  "brushes": 6534,
  "bten": 6535,
  "built": 6536,
  "bullen@@": 6537,
  "bush@@": 6538,
  "busine@@": 6539,
  "butterfly": 6540,
  "bzw.": 6541,
  "cab": 6542,
  "camp": 6543,
  "camp@@": 6544,
  "canadian": 6545,
  "cann@@": 6546,
  "capped": 6547,
  "casino": 6548,
  "cellphones": 6549,
  "cer@@": 6550,
  "checkers": 6551,
  "chers": 6552,
  "chewing": 6553,
  "chie@@": 6554,
  "chil@@": 6555,
  "chinesische": 6556,
  "chirur@@": 6557,
  "chocolate": 6558,
  "chopsticks": 6559,
  "chte@@": 6560,
  "cigar": 6561,
  "circular": 6562,
  "ckel@@": 6563,
  "cleaner": 6564,
  "cloud": 6565,
  "clouds": 6566,
  "cockpit": 6567,
  "cola-@@": 6568,
  "color@@": 6569,
  "concentra@@": 6570,
  "containing": 6571,
  "cover": 6572,
  "cover@@": 6573,
  "crates": 6574,
  "crowds": 6575,
  "curly-haired": 6576,
  "dahinter": 6577,
  "dal@@": 6578,
  "daran": 6579,
  "darin": 6580,
  "decora@@": 6581,
  "decorations": 6582,
  "deli": 6583,
  "denk@@": 6584,
  "dessert": 6585,
  "dex": 6586,
  "diert": 6587,
  "diesen": 6588,
  "discu@@": 6589,
  "displayed": 6590,
  "dive": 6591,
  "dragging": 6592,
  "draw": 6593,
  "dribbelt": 6594,
  "dritten": 6595,
  "dritter": 6596,
  "ducks": 6597,
  "dumpster": 6598,
  "dunk": 6599,
  "dunking": 6600,
  "egg": 6601,
  "einiger": 6602,
  "eink@@": 6603,
  "einkaufen": 6604,
  "einkaufstüten": 6605,
  "einrichtung": 6606,
  "eisk@@": 6607,
  "elektrischen": 6608,
  "elementary": 6609,
  "emp@@": 6610,
  "employees": 6611,
  "entfernen": 6612,
  "enth@@": 6613,
  "ep@@": 6614,
  "erhobenen": 6615,
  "erhö@@": 6616,
  "erie": 6617,
  "ering": 6618,
  "erleuchteten": 6619,
  "ese": 6620,
  "essensstand": 6621,
  "etwa": 6622,
  "euro@@": 6623,
  "ev@@": 6624,
  "even": 6625,
  "exerci@@": 6626,
  "expl@@": 6627,
  "extre@@": 6628,
  "fahren@@": 6629,
  "fahrenden": 6630,
  "familien@@": 6631,
  "farmers": 6632,
  "fassade": 6633,
  "fau@@": 6634,
  "featuring": 6635,
  "feier@@": 6636,
  "felsbrocken": 6637,
  "felsk@@": 6638,
  "felsvorsprung": 6639,
  "fenstern": 6640,
  "fernseher": 6641,
  "fertig": 6642,
  "festgebunden": 6643,
  "festi@@": 6644,
  "ffe": 6645,
  "fischernetz": 6646,
  "fishes": 6647,
  "flannel": 6648,
  "flipflops": 6649,
  "flugzeugs": 6650,
  "fluss@@": 6651,
  "flusses": 6652,
  "flussufer": 6653,
  "flügel": 6654,
  "foc@@": 6655,
  "foliage": 6656,
  "foods": 6657,
  "formeller": 6658,
  "formen": 6659,
  "free@@": 6660,
  "french": 6661,
  "friseur@@": 6662,
  "fur@@": 6663,
  "fußgänger@@": 6664,
  "förm@@": 6665,
  "führer": 6666,
  "füll@@": 6667,
  "gardening": 6668,
  "gas@@": 6669,
  "gazing": 6670,
  "geburtstag@@": 6671,
  "gefallen": 6672,
  "gegnerische": 6673,
  "gehol@@": 6674,
  "gelangen": 6675,
  "gelegenen": 6676,
  "gent": 6677,
  "geo@@": 6678,
  "gepflasterte": 6679,
  "gepfle@@": 6680,
  "gepäck@@": 6681,
  "geschn@@": 6682,
  "geschnittenen": 6683,
  "geschwindigkeit": 6684,
  "gesetz@@": 6685,
  "gespannt": 6686,
  "gestellt": 6687,
  "gesturing": 6688,
  "getroffen": 6689,
  "geträn@@": 6690,
  "geöffne@@": 6691,
  "geöffnet": 6692,
  "gged": 6693,
  "girl@@": 6694,
  "gitarren@@": 6695,
  "gkeiten": 6696,
  "glatze": 6697,
  "gleis": 6698,
  "glä@@": 6699,
  "golden@@": 6700,
  "grab": 6701,
  "grabbing": 6702,
  "grabs": 6703,
  "graffiti@@": 6704,
  "grasbewachsen@@": 6705,
  "greyho@@": 6706,
  "gru@@": 6707,
  "gruppen@@": 6708,
  "gur@@": 6709,
  "hab@@": 6710,
  "half@@": 6711,
  "handed": 6712,
  "handle": 6713,
  "haut": 6714,
  "hea@@": 6715,
  "heavily": 6716,
  "heim@@": 6717,
  "heller": 6718,
  "henden": 6719,
  "heraus@@": 6720,
  "herbst": 6721,
  "heruntergekommenen": 6722,
  "highchair": 6723,
  "hind": 6724,
  "hinterbeinen": 6725,
  "hm@@": 6726,
  "hohem": 6727,
  "hohes": 6728,
  "holzzaun": 6729,
  "hop@@": 6730,
  "horizon": 6731,
  "hudd@@": 6732,
  "hübsche": 6733,
  "hübschen": 6734,
  "ility": 6735,
  "illumin@@": 6736,
  "images": 6737,
  "inner@@": 6738,
  "inning": 6739,
  "interesting": 6740,
  "irokesenschnitt": 6741,
  "ites": 6742,
  "jeweils": 6743,
  "jogger": 6744,
  "jogs": 6745,
  "jong@@": 6746,
  "joy": 6747,
  "jumped": 6748,
  "jumper": 6749,
  "jung@@": 6750,
  "kapuzenpullover": 6751,
  "karohemd": 6752,
  "kartoff@@": 6753,
  "kauf@@": 6754,
  "ki": 6755,
  "kimonos": 6756,
  "kleide@@": 6757,
  "kly": 6758,
  "kneipe": 6759,
  "knie": 6760,
  "known": 6761,
  "knö@@": 6762,
  "kommen@@": 6763,
  "kontrolle": 6764,
  "kragen": 6765,
  "kricket": 6766,
  "krö@@": 6767,
  "ktion": 6768,
  "kul@@": 6769,
  "kulisse": 6770,
  "kund@@": 6771,
  "kunst": 6772,
  "kämpft": 6773,
  "lagen": 6774,
  "lampen": 6775,
  "langärm@@": 6776,
  "las": 6777,
  "last": 6778,
  "laternen": 6779,
  "league": 6780,
  "lehr@@": 6781,
  "lernen": 6782,
  "letter@@": 6783,
  "liegende": 6784,
  "life@@": 6785,
  "lippen": 6786,
  "live@@": 6787,
  "lokal": 6788,
  "losen": 6789,
  "lten": 6790,
  "lädt": 6791,
  "mas": 6792,
  "masken": 6793,
  "meer@@": 6794,
  "meere@@": 6795,
  "mei@@": 6796,
  "mel": 6797,
  "mente": 6798,
  "menu": 6799,
  "meter": 6800,
  "mexikani@@": 6801,
  "mmen@@": 6802,
  "mmer": 6803,
  "moder@@": 6804,
  "monkey": 6805,
  "moo@@": 6806,
  "motion": 6807,
  "musikinstrumente": 6808,
  "mut@@": 6809,
  "muzzle": 6810,
  "muzzled": 6811,
  "mäht": 6812,
  "möbel@@": 6813,
  "mön@@": 6814,
  "münz@@": 6815,
  "nacht@@": 6816,
  "nass": 6817,
  "nat@@": 6818,
  "nation@@": 6819,
  "nerin": 6820,
  "nes": 6821,
  "obser@@": 6822,
  "odles": 6823,
  "of@@": 6824,
  "offen@@": 6825,
  "olympic": 6826,
  "ope": 6827,
  "operates": 6828,
  "opy": 6829,
  "orangefarbenes": 6830,
  "orientalisch": 6831,
  "oring": 6832,
  "osten": 6833,
  "pad": 6834,
  "painter": 6835,
  "pale": 6836,
  "parallel": 6837,
  "passagiere": 6838,
  "passiert": 6839,
  "pathway": 6840,
  "patienten": 6841,
  "pattern": 6842,
  "peace-zeichen": 6843,
  "pee@@": 6844,
  "peer": 6845,
  "pencil": 6846,
  "perücke": 6847,
  "pet": 6848,
  "pf": 6849,
  "pfahl": 6850,
  "pfeil": 6851,
  "pferder@@": 6852,
  "photograph@@": 6853,
  "piercing": 6854,
  "platten": 6855,
  "pok@@": 6856,
  "pos@@": 6857,
  "pow@@": 6858,
  "ppel@@": 6859,
  "ppi@@": 6860,
  "prei@@": 6861,
  "press@@": 6862,
  "probieren": 6863,
  "projek@@": 6864,
  "protesters": 6865,
  "protestiert": 6866,
  "pub": 6867,
  "pullunder": 6868,
  "pumpkin": 6869,
  "radfahr@@": 6870,
  "radrennfahrer": 6871,
  "rai@@": 6872,
  "raincoat": 6873,
  "rasenfläche": 6874,
  "rasenmäher": 6875,
  "rauchen": 6876,
  "rav@@": 6877,
  "re": 6878,
  "really": 6879,
  "recording": 6880,
  "reflection": 6881,
  "regenmantel": 6882,
  "reklametafel": 6883,
  "relea@@": 6884,
  "remo@@": 6885,
  "rett@@": 6886,
  "rifle": 6887,
  "rikscha": 6888,
  "riot": 6889,
  "river@@": 6890,
  "road@@": 6891,
  "rudern": 6892,
  "ry-@@": 6893,
  "röhre": 6894,
  "sad": 6895,
  "sai@@": 6896,
  "san": 6897,
  "sauber": 6898,
  "sawing": 6899,
  "saxofon": 6900,
  "say": 6901,
  "scenic": 6902,
  "scent": 6903,
  "schach": 6904,
  "schachteln": 6905,
  "schafts@@": 6906,
  "schlammigen": 6907,
  "schneebedeckte": 6908,
  "schneebedecktes": 6909,
  "schwarz-weiße": 6910,
  "schwarz-weißem": 6911,
  "schwestern": 6912,
  "schwimmen@@": 6913,
  "schürzen": 6914,
  "schützen": 6915,
  "schützt": 6916,
  "score": 6917,
  "section": 6918,
  "segelboot": 6919,
  "seichten": 6920,
  "service": 6921,
  "shiel@@": 6922,
  "shiny": 6923,
  "shoo@@": 6924,
  "short-haired": 6925,
  "sicherheitsweste": 6926,
  "skateboar@@": 6927,
  "sking": 6928,
  "sle@@": 6929,
  "sledding": 6930,
  "sniffing": 6931,
  "snowboards": 6932,
  "soap": 6933,
  "sorting": 6934,
  "sou@@": 6935,
  "spat@@": 6936,
  "spaziert": 6937,
  "spee@@": 6938,
  "speise@@": 6939,
  "spie@@": 6940,
  "spielerinnen": 6941,
  "spielers": 6942,
  "spir@@": 6943,
  "spot": 6944,
  "spritz@@": 6945,
  "späht": 6946,
  "sse@@": 6947,
  "ssions": 6948,
  "stacked": 6949,
  "stant": 6950,
  "stativ": 6951,
  "statu@@": 6952,
  "stecken": 6953,
  "steile": 6954,
  "steintreppe": 6955,
  "stil@@": 6956,
  "stirn@@": 6957,
  "stoop": 6958,
  "strands": 6959,
  "strapped": 6960,
  "straßenarbeiter": 6961,
  "straßenmusiker": 6962,
  "straßenseite": 6963,
  "strei@@": 6964,
  "strolls": 6965,
  "stromschnellen": 6966,
  "stuhl@@": 6967,
  "styli@@": 6968,
  "stäbchen": 6969,
  "suit@@": 6970,
  "sure": 6971,
  "swor@@": 6972,
  "system": 6973,
  "sz@@": 6974,
  "tage": 6975,
  "tags": 6976,
  "tagsüber": 6977,
  "tanzfläche": 6978,
  "task": 6979,
  "teilnehmen": 6980,
  "teilt": 6981,
  "temp@@": 6982,
  "tends": 6983,
  "than": 6984,
  "thing": 6985,
  "tiges": 6986,
  "tight": 6987,
  "tiled": 6988,
  "tips": 6989,
  "toi@@": 6990,
  "tol@@": 6991,
  "trau@@": 6992,
  "treat": 6993,
  "tren@@": 6994,
  "trench": 6995,
  "treppenhaus": 6996,
  "tripod": 6997,
  "tromm@@": 6998,
  "träger": 6999,
  "tun": 7000,
  "ture": 7001,
  "two-@@": 7002,
  "types": 7003,
  "tätowierte": 7004,
  "ual": 7005,
  "umringt": 7006,
  "unglück@@": 7007,
  "uniformierte": 7008,
  "uniformierter": 7009,
  "unique": 7010,
  "university": 7011,
  "upset": 7012,
  "us-@@": 7013,
  "utsche": 7014,
  "vergnügen": 7015,
  "violet@@": 7016,
  "voll@@": 7017,
  "vorder@@": 7018,
  "vorderen": 7019,
  "vorführt": 7020,
  "vö@@": 7021,
  "völlig": 7022,
  "w-@@": 7023,
  "wahr@@": 7024,
  "wait@@": 7025,
  "warmen": 7026,
  "wasserfläche": 7027,
  "wasserski": 7028,
  "weiteren": 7029,
  "welcome": 7030,
  "well-@@": 7031,
  "wenn": 7032,
  "wetter": 7033,
  "wheeler": 7034,
  "who@@": 7035,
  "wig": 7036,
  "wil@@": 7037,
  "win": 7038,
  "wr@@": 7039,
  "writes": 7040,
  "wär@@": 7041,
  "wärmen": 7042,
  "würde": 7043,
  "zauber@@": 7044,
  "zei@@": 7045,
  "zeichnen": 7046,
  "zeitschriften": 7047,
  "ziegel": 7048,
  "zimmer@@": 7049,
  "zit@@": 7050,
  "zten": 7051,
  "ähnlich": 7052,
  "ärz@@": 7053,
  "öffnen": 7054,
  "überdachten": 7055,
  "überprüfen": 7056,
  "ügel": 7057,
  "-colored": 7058,
  "20@@": 7059,
  "abandoned": 7060,
  "absol@@": 7061,
  "accident": 7062,
  "acrobatic": 7063,
  "adverti@@": 7064,
  "afrikaner": 7065,
  "akrobati@@": 7066,
  "aktiv@@": 7067,
  "altmodi@@": 7068,
  "altmodischen": 7069,
  "amerikanisches": 7070,
  "ammer": 7071,
  "amount": 7072,
  "angehalten": 7073,
  "angels": 7074,
  "angezogene": 7075,
  "angle": 7076,
  "ansehen": 7077,
  "ant@@": 7078,
  "anten": 7079,
  "ants": 7080,
  "anweisungen": 7081,
  "anzahl": 7082,
  "arrangement": 7083,
  "artists": 7084,
  "ately": 7085,
  "aten": 7086,
  "ath@@": 7087,
  "aufblasbare": 7088,
  "aufgereg@@": 7089,
  "aufzug": 7090,
  "ausgebreite@@": 7091,
  "außer@@": 7092,
  "b-@@": 7093,
  "backsteinmauer": 7094,
  "badminton": 7095,
  "bagger": 7096,
  "ballerin@@": 7097,
  "bands": 7098,
  "banners": 7099,
  "barefooted": 7100,
  "barre@@": 7101,
  "bartender": 7102,
  "base@@": 7103,
  "baseballfeld": 7104,
  "baseman": 7105,
  "basketballfeld": 7106,
  "bauarbeiter@@": 7107,
  "beachvolleyball": 7108,
  "beads": 7109,
  "bear@@": 7110,
  "because": 7111,
  "bedroom": 7112,
  "begeistert": 7113,
  "beißen": 7114,
  "benden": 7115,
  "berry": 7116,
  "bert": 7117,
  "bestehend": 7118,
  "beteil@@": 7119,
  "betet": 7120,
  "betonmauer": 7121,
  "blasinstru@@": 7122,
  "blaskapelle": 7123,
  "blau-grünen": 7124,
  "bled": 7125,
  "blö@@": 7126,
  "blöcken": 7127,
  "boar@@": 7128,
  "bockenden": 7129,
  "body@@": 7130,
  "bodysuit": 7131,
  "bongo": 7132,
  "boogie": 7133,
  "bord": 7134,
  "boston": 7135,
  "brautjung@@": 7136,
  "breiten": 7137,
  "brennende": 7138,
  "bridesmaids": 7139,
  "british": 7140,
  "broad": 7141,
  "brot@@": 7142,
  "buchstaben": 7143,
  "buck@@": 7144,
  "bul@@": 7145,
  "bundle": 7146,
  "bunge@@": 7147,
  "buried": 7148,
  "bush": 7149,
  "bän@@": 7150,
  "bürste": 7151,
  "bürstet": 7152,
  "camels": 7153,
  "campfire": 7154,
  "camping@@": 7155,
  "canal": 7156,
  "candle": 7157,
  "canoes": 7158,
  "canyon": 7159,
  "cari@@": 7160,
  "carrier": 7161,
  "cases": 7162,
  "cen@@": 7163,
  "champa@@": 7164,
  "cheerlea@@": 7165,
  "cheerleading": 7166,
  "cherry": 7167,
  "chin": 7168,
  "chin@@": 7169,
  "chten@@": 7170,
  "cigar@@": 7171,
  "circus": 7172,
  "citi@@": 7173,
  "ckchen": 7174,
  "cktem": 7175,
  "clar@@": 7176,
  "cluttered": 7177,
  "college-@@": 7178,
  "columns": 7179,
  "comi@@": 7180,
  "commercial": 7181,
  "communi@@": 7182,
  "companion": 7183,
  "completed": 7184,
  "conductor": 7185,
  "congreg@@": 7186,
  "conne@@": 7187,
  "cons@@": 7188,
  "cowgirl": 7189,
  "crashing": 7190,
  "crayons": 7191,
  "create": 7192,
  "cries": 7193,
  "crow@@": 7194,
  "darkened": 7195,
  "darüber": 7196,
  "daytime": 7197,
  "deci@@": 7198,
  "deer": 7199,
  "dekor@@": 7200,
  "dekoriert": 7201,
  "demonstranten": 7202,
  "denkmal": 7203,
  "denkt": 7204,
  "denti@@": 7205,
  "deser@@": 7206,
  "destination": 7207,
  "dicken": 7208,
  "dieselbe": 7209,
  "dinosau@@": 7210,
  "dinosauri@@": 7211,
  "directing": 7212,
  "disk@@": 7213,
  "dly": 7214,
  "doesn": 7215,
  "downhill": 7216,
  "dramati@@": 7217,
  "draped": 7218,
  "draws": 7219,
  "dreirä@@": 7220,
  "dul@@": 7221,
  "dunkelheit": 7222,
  "dä@@": 7223,
  "earth": 7224,
  "easel": 7225,
  "edly": 7226,
  "eds": 7227,
  "eho@@": 7228,
  "eier": 7229,
  "eig@@": 7230,
  "eine@@": 7231,
  "eingewickelt": 7232,
  "einkäufer": 7233,
  "eisen@@": 7234,
  "eishockey": 7235,
  "eishockey@@": 7236,
  "elabo@@": 7237,
  "eled": 7238,
  "elektri@@": 7239,
  "elektro@@": 7240,
  "elektronischen": 7241,
  "eli@@": 7242,
  "eln@@": 7243,
  "elnden": 7244,
  "employee": 7245,
  "enga@@": 7246,
  "envi@@": 7247,
  "ereignis": 7248,
  "erhält": 7249,
  "erklimmt": 7250,
  "esstisch": 7251,
  "establishment": 7252,
  "ett@@": 7253,
  "eu@@": 7254,
  "europa": 7255,
  "europe": 7256,
  "european": 7257,
  "every@@": 7258,
  "facial": 7259,
  "fackel": 7260,
  "fahrradhelm": 7261,
  "fahrzeugen": 7262,
  "fasz@@": 7263,
  "fat": 7264,
  "faulenzen": 7265,
  "fedora": 7266,
  "fels": 7267,
  "fernsehen": 7268,
  "fertig@@": 7269,
  "ff": 7270,
  "ffe@@": 7271,
  "ffer@@": 7272,
  "fields": 7273,
  "figures": 7274,
  "filming": 7275,
  "finden": 7276,
  "fish@@": 7277,
  "fit": 7278,
  "fliege": 7279,
  "flower@@": 7280,
  "flug": 7281,
  "foam": 7282,
  "followed": 7283,
  "fon@@": 7284,
  "football-spiel": 7285,
  "footballspiel": 7286,
  "forested": 7287,
  "forscher": 7288,
  "fotogra@@": 7289,
  "fountains": 7290,
  "frem@@": 7291,
  "frischem": 7292,
  "fting": 7293,
  "fts": 7294,
  "fußboden": 7295,
  "fußgängerübergang": 7296,
  "gan": 7297,
  "gangs": 7298,
  "gat@@": 7299,
  "gebauten": 7300,
  "gebir@@": 7301,
  "gebäude@@": 7302,
  "gefahren": 7303,
  "geflochten@@": 7304,
  "gefroren@@": 7305,
  "gefär@@": 7306,
  "gegenüber@@": 7307,
  "gehstock": 7308,
  "gehüllt": 7309,
  "geish@@": 7310,
  "gelb-schwarzen": 7311,
  "geld@@": 7312,
  "geldautomaten": 7313,
  "gemü@@": 7314,
  "gert": 7315,
  "geräte": 7316,
  "geschmückt": 7317,
  "geschoben": 7318,
  "geschrie@@": 7319,
  "gesellschaft": 7320,
  "gespielt": 7321,
  "gestreifte": 7322,
  "gesture": 7323,
  "getreide": 7324,
  "gewinnen": 7325,
  "gieren": 7326,
  "gießen": 7327,
  "gin@@": 7328,
  "gitarre@@": 7329,
  "gitter": 7330,
  "gleichgewicht": 7331,
  "glichen": 7332,
  "gläser": 7333,
  "gne": 7334,
  "gold-@@": 7335,
  "gown": 7336,
  "grasp@@": 7337,
  "graues": 7338,
  "gress": 7339,
  "grünfläche": 7340,
  "gymnastik@@": 7341,
  "gän@@": 7342,
  "gürteln": 7343,
  "ha": 7344,
  "had": 7345,
  "haltend": 7346,
  "hammering": 7347,
  "hammock": 7348,
  "handwerker": 7349,
  "handys": 7350,
  "hardwood": 7351,
  "harmonica": 7352,
  "harmonika": 7353,
  "harve@@": 7354,
  "hawaiian": 7355,
  "headset": 7356,
  "heiß@@": 7357,
  "hellgrünen": 7358,
  "hellhäuti@@": 7359,
  "heraushängender": 7360,
  "hero": 7361,
  "hinauf@@": 7362,
  "hinder@@": 7363,
  "hochha@@": 7364,
  "hochstuhl": 7365,
  "hock@@": 7366,
  "hockeyspiel": 7367,
  "holi@@": 7368,
  "holzbrett": 7369,
  "holzkonstruktion": 7370,
  "homemade": 7371,
  "horizont": 7372,
  "hosenträgern": 7373,
  "hubschrauber": 7374,
  "huhn": 7375,
  "human": 7376,
  "husky": 7377,
  "hydrant": 7378,
  "hydranten": 7379,
  "hängematte": 7380,
  "hüfte": 7381,
  "ier@@": 7382,
  "ieren": 7383,
  "ierten": 7384,
  "iling": 7385,
  "ilt": 7386,
  "imbiss@@": 7387,
  "imp@@": 7388,
  "inder": 7389,
  "india": 7390,
  "indian@@": 7391,
  "indiani@@": 7392,
  "indien": 7393,
  "industri@@": 7394,
  "industrial": 7395,
  "information": 7396,
  "ing-@@": 7397,
  "ir": 7398,
  "irgendeinem": 7399,
  "island": 7400,
  "itali@@": 7401,
  "jack": 7402,
  "jahrmarkt@@": 7403,
  "jogging@@": 7404,
  "judges": 7405,
  "kahl@@": 7406,
  "kajakfahrer": 7407,
  "kajaks": 7408,
  "kamm": 7409,
  "kampfspor@@": 7410,
  "kampfsportler": 7411,
  "kanadi@@": 7412,
  "kaner": 7413,
  "kanerin": 7414,
  "kaput@@": 7415,
  "kapuzen@@": 7416,
  "karat@@": 7417,
  "karierter": 7418,
  "kaya@@": 7419,
  "kee@@": 7420,
  "keeper": 7421,
  "kegeln": 7422,
  "kerze": 7423,
  "key@@": 7424,
  "kinds": 7425,
  "kisses": 7426,
  "kitchena@@": 7427,
  "klammert": 7428,
  "knee-@@": 7429,
  "kommuni@@": 7430,
  "kompletter": 7431,
  "kontrol@@": 7432,
  "konzer@@": 7433,
  "kopfbedeckungen": 7434,
  "kopfstein@@": 7435,
  "kr@@": 7436,
  "kragen@@": 7437,
  "kreuzten": 7438,
  "krä@@": 7439,
  "kämpfer": 7440,
  "kürbis": 7441,
  "küsten@@": 7442,
  "labeled": 7443,
  "laboratory": 7444,
  "ladefläche": 7445,
  "ladung": 7446,
  "lama": 7447,
  "lands": 7448,
  "lanterns": 7449,
  "lay@@": 7450,
  "leb@@": 7451,
  "lecker@@": 7452,
  "legerer": 7453,
  "lem@@": 7454,
  "leuchten@@": 7455,
  "lic": 7456,
  "lieren": 7457,
  "linke": 7458,
  "lion": 7459,
  "lippe": 7460,
  "lippen@@": 7461,
  "lively": 7462,
  "lly@@": 7463,
  "loaded": 7464,
  "looked": 7465,
  "lor": 7466,
  "lun@@": 7467,
  "lusti@@": 7468,
  "ly-@@": 7469,
  "ma-@@": 7470,
  "mag@@": 7471,
  "main": 7472,
  "mal": 7473,
  "mani@@": 7474,
  "marathonläufer": 7475,
  "mari@@": 7476,
  "marki@@": 7477,
  "masks": 7478,
  "masten": 7479,
  "matra@@": 7480,
  "medium": 7481,
  "medizini@@": 7482,
  "meißelt": 7483,
  "mess": 7484,
  "metallstange": 7485,
  "mick@@": 7486,
  "midst": 7487,
  "mige": 7488,
  "militäruni@@": 7489,
  "minivan": 7490,
  "mitspieler": 7491,
  "mitt@@": 7492,
  "mix": 7493,
  "monk": 7494,
  "much": 7495,
  "murky": 7496,
  "muscular": 7497,
  "muskulöser": 7498,
  "musta@@": 7499,
  "möchte": 7500,
  "na": 7501,
  "nackte": 7502,
  "nahen": 7503,
  "nails": 7504,
  "napping": 7505,
  "natur": 7506,
  "navi@@": 7507,
  "navigates": 7508,
  "notes": 7509,
  "nummern": 7510,
  "nun": 7511,
  "nungen": 7512,
  "obama": 7513,
  "objekti@@": 7514,
  "och@@": 7515,
  "oklaho@@": 7516,
  "oldti@@": 7517,
  "onne": 7518,
  "ore@@": 7519,
  "orientalischer": 7520,
  "ozeans": 7521,
  "package": 7522,
  "packed": 7523,
  "packing": 7524,
  "pain": 7525,
  "papa": 7526,
  "passen@@": 7527,
  "patrio@@": 7528,
  "pay": 7529,
  "ped@@": 7530,
  "pedal": 7531,
  "peers": 7532,
  "pfi@@": 7533,
  "photographers": 7534,
  "pinsel": 7535,
  "pizzeria": 7536,
  "plain": 7537,
  "plasti@@": 7538,
  "pocket": 7539,
  "polohemd": 7540,
  "pop": 7541,
  "porträt": 7542,
  "pours": 7543,
  "pp": 7544,
  "ppy": 7545,
  "probiert": 7546,
  "product": 7547,
  "projector": 7548,
  "protect": 7549,
  "protest@@": 7550,
  "protesti@@": 7551,
  "prun@@": 7552,
  "präch@@": 7553,
  "prü@@": 7554,
  "punch": 7555,
  "purses": 7556,
  "putzer": 7557,
  "puzzle": 7558,
  "rate": 7559,
  "redhead": 7560,
  "refle@@": 7561,
  "reifen@@": 7562,
  "religious": 7563,
  "religiö@@": 7564,
  "rest@@": 7565,
  "return": 7566,
  "ridor": 7567,
  "rockband": 7568,
  "rodeo@@": 7569,
  "rollers": 7570,
  "rollerskat@@": 7571,
  "rosaroten": 7572,
  "rostigen": 7573,
  "rot-schwarzen": 7574,
  "rothaariger": 7575,
  "rub@@": 7576,
  "ruder": 7577,
  "rugbyspieler": 7578,
  "rugs": 7579,
  "ruhig": 7580,
  "rührt": 7581,
  "saft": 7582,
  "sail": 7583,
  "sailboat": 7584,
  "sandburg": 7585,
  "sandwi@@": 7586,
  "sari": 7587,
  "saugt": 7588,
  "saxoph@@": 7589,
  "schaf": 7590,
  "schals": 7591,
  "scheln": 7592,
  "schieß@@": 7593,
  "schlendern": 7594,
  "schloss": 7595,
  "schlucht": 7596,
  "schmalen": 7597,
  "schmin@@": 7598,
  "schnappt": 7599,
  "schnit@@": 7600,
  "school-@@": 7601,
  "schran@@": 7602,
  "schrau@@": 7603,
  "schreib@@": 7604,
  "schritt": 7605,
  "schutt": 7606,
  "schutzwe@@": 7607,
  "schwarm": 7608,
  "schwenken": 7609,
  "schwere": 7610,
  "schöner": 7611,
  "scrubs": 7612,
  "sear@@": 7613,
  "seifenblase": 7614,
  "selbst@@": 7615,
  "servieren": 7616,
  "sfarbenen": 7617,
  "shadow": 7618,
  "shaggy": 7619,
  "shelf": 7620,
  "shing@@": 7621,
  "shout@@": 7622,
  "sicherheitswesten": 7623,
  "signing": 7624,
  "silberne": 7625,
  "sine": 7626,
  "sk": 7627,
  "skate@@": 7628,
  "skatet": 7629,
  "ske@@": 7630,
  "skies": 7631,
  "skills": 7632,
  "skinny": 7633,
  "sky@@": 7634,
  "slam": 7635,
  "smartphone": 7636,
  "soeben": 7637,
  "soft@@": 7638,
  "sombrer@@": 7639,
  "somewhere": 7640,
  "sommertag": 7641,
  "sonnenlicht": 7642,
  "speeding": 7643,
  "spiegelbild": 7644,
  "spielsachen": 7645,
  "spielzeugauto": 7646,
  "spins": 7647,
  "spitzen": 7648,
  "splashed": 7649,
  "sporthalle": 7650,
  "spotlight": 7651,
  "spra@@": 7652,
  "sprays": 7653,
  "spring@@": 7654,
  "springer": 7655,
  "spru@@": 7656,
  "squeezing": 7657,
  "ss-@@": 7658,
  "sseln": 7659,
  "stabhoch@@": 7660,
  "stadtpark": 7661,
  "staff": 7662,
  "stag": 7663,
  "stamm@@": 7664,
  "starbucks": 7665,
  "staub": 7666,
  "staun@@": 7667,
  "steinbank": 7668,
  "stellte": 7669,
  "stern@@": 7670,
  "stock@@": 7671,
  "stor@@": 7672,
  "straßenfest": 7673,
  "straßenszene": 7674,
  "stream@@": 7675,
  "streifen@@": 7676,
  "stretches": 7677,
  "striert": 7678,
  "stringed": 7679,
  "strolling": 7680,
  "strumpfhose": 7681,
  "stry": 7682,
  "strümpfen": 7683,
  "stuck": 7684,
  "stuff": 7685,
  "stum@@": 7686,
  "stumpf": 7687,
  "stämmen": 7688,
  "stür": 7689,
  "stütz@@": 7690,
  "surgical": 7691,
  "suv": 7692,
  "sweatshirts": 7693,
  "synchronized": 7694,
  "säcke": 7695,
  "säcken": 7696,
  "sägt": 7697,
  "table@@": 7698,
  "tackled": 7699,
  "tage@@": 7700,
  "tank@@": 7701,
  "taube": 7702,
  "taxis": 7703,
  "tching": 7704,
  "teammates": 7705,
  "teddy@@": 7706,
  "teenagern": 7707,
  "tele@@": 7708,
  "telefonieren": 7709,
  "telefonzelle": 7710,
  "tenni@@": 7711,
  "tennisplatz": 7712,
  "tery": 7713,
  "text": 7714,
  "theater@@": 7715,
  "tic": 7716,
  "tischer": 7717,
  "too": 7718,
  "toothbrush": 7719,
  "touristen@@": 7720,
  "trains": 7721,
  "transit": 7722,
  "travel": 7723,
  "trockenen": 7724,
  "trocknet": 7725,
  "träger@@": 7726,
  "tug-of-war": 7727,
  "tum@@": 7728,
  "tuxe@@": 7729,
  "tying": 7730,
  "typi@@": 7731,
  "uble": 7732,
  "ugh": 7733,
  "umgebenen": 7734,
  "una": 7735,
  "underground": 7736,
  "une": 7737,
  "unge@@": 7738,
  "unhappy": 7739,
  "unterhemd": 7740,
  "unusual": 7741,
  "ured": 7742,
  "usly": 7743,
  "utensi@@": 7744,
  "va": 7745,
  "variety": 7746,
  "vege@@": 7747,
  "vending": 7748,
  "verschieden": 7749,
  "verschränkten": 7750,
  "verschwo@@": 7751,
  "verse": 7752,
  "versuch": 7753,
  "verw@@": 7754,
  "verwirr@@": 7755,
  "victory": 7756,
  "vintage": 7757,
  "volleyballspieler": 7758,
  "vollstän@@": 7759,
  "vorsichtig": 7760,
  "vögeln": 7761,
  "wach@@": 7762,
  "wache": 7763,
  "wachmann": 7764,
  "wahrscheinlich": 7765,
  "waist": 7766,
  "waiter": 7767,
  "walk@@": 7768,
  "warehouse": 7769,
  "wartungs@@": 7770,
  "waschmaschine": 7771,
  "wash": 7772,
  "washington": 7773,
  "wasserbecken": 7774,
  "wasserski@@": 7775,
  "wassersprenger": 7776,
  "waterskiing": 7777,
  "wegen": 7778,
  "weise": 7779,
  "weiterer": 7780,
  "werfer@@": 7781,
  "werkzeugen": 7782,
  "wettei@@": 7783,
  "wheel@@": 7784,
  "wheeled": 7785,
  "when": 7786,
  "wildnis": 7787,
  "windhunde": 7788,
  "wippe": 7789,
  "wischen": 7790,
  "wol@@": 7791,
  "wollmütze": 7792,
  "wän@@": 7793,
  "yama@@": 7794,
  "zahnbürste": 7795,
  "zeh@@": 7796,
  "zelten": 7797,
  "zeremonie": 7798,
  "zerinnen": 7799,
  "zhut": 7800,
  "zie@@": 7801,
  "ziegelbau": 7802,
  "ziegelgebäude": 7803,
  "zieh@@": 7804,
  "zielen": 7805,
  "zielt": 7806,
  "zuhause": 7807,
  "zuhört": 7808,
  "zzy": 7809,
  "zäun@@": 7810,
  "züge": 7811,
  "zündet": 7812,
  "ßer@@": 7813,
  "12": 7814,
  "absperr@@": 7815,
  "ach@@": 7816,
  "acting": 7817,
  "activ@@": 7818,
  "ade": 7819,
  "alls": 7820,
  "amm@@": 7821,
  "ap@@": 7822,
  "ards": 7823,
  "arrow": 7824,
  "asp@@": 7825,
  "ass@@": 7826,
  "attle": 7827,
  "aufmerk@@": 7828,
  "aufnah@@": 7829,
  "ausgeb@@": 7830,
  "badeho@@": 7831,
  "bati@@": 7832,
  "bauern@@": 7833,
  "befahren@@": 7834,
  "begin@@": 7835,
  "beguta@@": 7836,
  "bew@@": 7837,
  "blä@@": 7838,
  "boo@@": 7839,
  "bord@@": 7840,
  "cess": 7841,
  "check@@": 7842,
  "ckelt": 7843,
  "cle": 7844,
  "clut@@": 7845,
  "competiti@@": 7846,
  "congre@@": 7847,
  "cou@@": 7848,
  "cy@@": 7849,
  "cycles": 7850,
  "day@@": 7851,
  "des@@": 7852,
  "die@@": 7853,
  "digit@@": 7854,
  "drah@@": 7855,
  "drü@@": 7856,
  "egt": 7857,
  "ehnt": 7858,
  "einkaufsta@@": 7859,
  "electri@@": 7860,
  "eleph@@": 7861,
  "embra@@": 7862,
  "ena@@": 7863,
  "ently": 7864,
  "exhi@@": 7865,
  "experi@@": 7866,
  "fack@@": 7867,
  "farbi@@": 7868,
  "faulen@@": 7869,
  "fernseh@@": 7870,
  "fft": 7871,
  "flauschi@@": 7872,
  "flü@@": 7873,
  "fter": 7874,
  "ga": 7875,
  "gage": 7876,
  "geburtsta@@": 7877,
  "gehöri@@": 7878,
  "gela@@": 7879,
  "gelän@@": 7880,
  "geschir@@": 7881,
  "geschlo@@": 7882,
  "geschäft@@": 7883,
  "gewe@@": 7884,
  "ght@@": 7885,
  "glatz@@": 7886,
  "gleich@@": 7887,
  "grei@@": 7888,
  "gte": 7889,
  "gä@@": 7890,
  "hallo@@": 7891,
  "ham@@": 7892,
  "hamm@@": 7893,
  "happ@@": 7894,
  "hause": 7895,
  "herunterge@@": 7896,
  "hosen@@": 7897,
  "hou@@": 7898,
  "händ@@": 7899,
  "ian": 7900,
  "ight": 7901,
  "inen": 7902,
  "inlin@@": 7903,
  "inline@@": 7904,
  "inspe@@": 7905,
  "irs": 7906,
  "ise": 7907,
  "itten": 7908,
  "iz@@": 7909,
  "jo": 7910,
  "jün@@": 7911,
  "kehren": 7912,
  "kellner": 7913,
  "khakifarbener": 7914,
  "kite@@": 7915,
  "klappstühlen": 7916,
  "kleid@@": 7917,
  "klein": 7918,
  "kolle@@": 7919,
  "konferen@@": 7920,
  "kostümierte": 7921,
  "krabbelt": 7922,
  "kran@@": 7923,
  "krankenhaus@@": 7924,
  "kte": 7925,
  "kunde": 7926,
  "kunft": 7927,
  "kunstgalerie": 7928,
  "kümmern": 7929,
  "lab@@": 7930,
  "lach@@": 7931,
  "lack@@": 7932,
  "ladens": 7933,
  "laid": 7934,
  "langes": 7935,
  "laterne": 7936,
  "laufband": 7937,
  "laut@@": 7938,
  "lebensmittelmarkt": 7939,
  "legged": 7940,
  "legos": 7941,
  "leichtath@@": 7942,
  "leitet": 7943,
  "leopar@@": 7944,
  "leopard": 7945,
  "letscher": 7946,
  "level": 7947,
  "lich@@": 7948,
  "lichtern": 7949,
  "licking": 7950,
  "lier@@": 7951,
  "ligh@@": 7952,
  "lilafarbener": 7953,
  "lim@@": 7954,
  "linge": 7955,
  "lli@@": 7956,
  "lling": 7957,
  "loa@@": 7958,
  "lush": 7959,
  "ly@@": 7960,
  "maid": 7961,
  "maj@@": 7962,
  "mannequin": 7963,
  "mannschaft@@": 7964,
  "manövri@@": 7965,
  "marble": 7966,
  "marked": 7967,
  "mascara": 7968,
  "mascot": 7969,
  "maskottchen": 7970,
  "may": 7971,
  "maybe": 7972,
  "meadow": 7973,
  "measuring": 7974,
  "medieval": 7975,
  "mediz@@": 7976,
  "mehr": 7977,
  "mehrfarbigen": 7978,
  "mensch@@": 7979,
  "metri@@": 7980,
  "migen": 7981,
  "mikrosk@@": 7982,
  "militärangehöri@@": 7983,
  "mini-@@": 7984,
  "mitgliedern": 7985,
  "mitt": 7986,
  "mmel": 7987,
  "mo": 7988,
  "model@@": 7989,
  "modell": 7990,
  "modernen": 7991,
  "monitors": 7992,
  "motiv": 7993,
  "motocrossfahrer": 7994,
  "mountainous": 7995,
  "mounted": 7996,
  "mouths": 7997,
  "mowing": 7998,
  "musikinstrument": 7999,
  "musikinstrumenten": 8000,
  "muss": 8001,
  "möwen": 8002,
  "müllcontainer": 8003,
  "nachmittag": 8004,
  "nachricht": 8005,
  "nackter": 8006,
  "nadel@@": 8007,
  "nagel@@": 8008,
  "nah@@": 8009,
  "named": 8010,
  "nassem": 8011,
  "necklaces": 8012,
  "neuen": 8013,
  "newlywed": 8014,
  "nin@@": 8015,
  "nine": 8016,
  "nis": 8017,
  "nn@@": 8018,
  "nnen": 8019,
  "notiz@@": 8020,
  "nude": 8021,
  "nä@@": 8022,
  "nägel": 8023,
  "objekte": 8024,
  "odle": 8025,
  "oil": 8026,
  "olli@@": 8027,
  "om": 8028,
  "om@@": 8029,
  "onspieler": 8030,
  "open@@": 8031,
  "ordering": 8032,
  "ordnung": 8033,
  "orned": 8034,
  "ort@@": 8035,
  "ot": 8036,
  "our": 8037,
  "outfielder": 8038,
  "paci@@": 8039,
  "packen": 8040,
  "pal@@": 8041,
  "palme": 8042,
  "pans": 8043,
  "parent": 8044,
  "parken": 8045,
  "parks": 8046,
  "passagieren": 8047,
  "past@@": 8048,
  "pati@@": 8049,
  "patrons": 8050,
  "peaks": 8051,
  "pelz@@": 8052,
  "personen@@": 8053,
  "pfadfin@@": 8054,
  "pfadfinder": 8055,
  "pfeife": 8056,
  "pfeln": 8057,
  "ph": 8058,
  "picket": 8059,
  "pict@@": 8060,
  "piercings": 8061,
  "pigeon": 8062,
  "pink-@@": 8063,
  "pirate": 8064,
  "plakat@@": 8065,
  "plea@@": 8066,
  "plüschtier": 8067,
  "podest": 8068,
  "pointed": 8069,
  "policemen": 8070,
  "poodle": 8071,
  "pops": 8072,
  "power@@": 8073,
  "ppen@@": 8074,
  "prepared": 8075,
  "presents": 8076,
  "prints": 8077,
  "pro": 8078,
  "produkt": 8079,
  "produkten": 8080,
  "profi-@@": 8081,
  "propan@@": 8082,
  "pturen": 8083,
  "pullovern": 8084,
  "punching": 8085,
  "punk": 8086,
  "punk@@": 8087,
  "puppet": 8088,
  "purchase": 8089,
  "putz@@": 8090,
  "pyjam@@": 8091,
  "pyrami@@": 8092,
  "pyramid": 8093,
  "quadra@@": 8094,
  "quet": 8095,
  "quiet": 8096,
  "radfahren": 8097,
  "rafts": 8098,
  "rag": 8099,
  "railings": 8100,
  "rails": 8101,
  "raining": 8102,
  "randstein": 8103,
  "rasier@@": 8104,
  "raz@@": 8105,
  "reception": 8106,
  "red-@@": 8107,
  "reflektierenden": 8108,
  "regelt": 8109,
  "regnet": 8110,
  "reo@@": 8111,
  "resort": 8112,
  "rich@@": 8113,
  "riesen@@": 8114,
  "riesi@@": 8115,
  "ring@@": 8116,
  "ringkampf": 8117,
  "rise": 8118,
  "rodeoreiter": 8119,
  "rohre": 8120,
  "rolle": 8121,
  "rollerbla@@": 8122,
  "rolls": 8123,
  "ronment": 8124,
  "ros@@": 8125,
  "rosa@@": 8126,
  "rosen": 8127,
  "rot-weißes": 8128,
  "ruck@@": 8129,
  "ruderboot": 8130,
  "rug@@": 8131,
  "rugby@@": 8132,
  "rush": 8133,
  "rustic": 8134,
  "räumen": 8135,
  "sandhügel": 8136,
  "sar@@": 8137,
  "satt@@": 8138,
  "sausa@@": 8139,
  "sca@@": 8140,
  "schanze": 8141,
  "schaum@@": 8142,
  "schenkt": 8143,
  "scher@@": 8144,
  "schil@@": 8145,
  "schlafend": 8146,
  "schlafendes": 8147,
  "schlamm@@": 8148,
  "schleift": 8149,
  "schließ@@": 8150,
  "schließen": 8151,
  "schlittschuhen": 8152,
  "schnau@@": 8153,
  "schnür@@": 8154,
  "scho@@": 8155,
  "schokoladen@@": 8156,
  "schon@@": 8157,
  "schr@@": 8158,
  "schun@@": 8159,
  "schwebebalken": 8160,
  "schweiß@@": 8161,
  "schwertern": 8162,
  "schwieri@@": 8163,
  "schär@@": 8164,
  "schönes": 8165,
  "schülerin": 8166,
  "schülern": 8167,
  "schützern": 8168,
  "scientist": 8169,
  "scopes": 8170,
  "sculptures": 8171,
  "seafood": 8172,
  "seating": 8173,
  "segelt": 8174,
  "seichtem": 8175,
  "seifen@@": 8176,
  "seit@@": 8177,
  "seligkeiten": 8178,
  "seltsam@@": 8179,
  "sem": 8180,
  "sements": 8181,
  "semi-@@": 8182,
  "senior": 8183,
  "separate": 8184,
  "sfeld": 8185,
  "sh-@@": 8186,
  "shake": 8187,
  "shalle": 8188,
  "shawl": 8189,
  "shift": 8190,
  "shoe@@": 8191,
  "shower": 8192,
  "sicher@@": 8193,
  "sidelines": 8194,
  "silhouetted": 8195,
  "skateboarders": 8196,
  "skater@@": 8197,
  "skel@@": 8198,
  "skleid": 8199,
  "sky-@@": 8200,
  "skydiving": 8201,
  "slacks": 8202,
  "sleep": 8203,
  "sleeves": 8204,
  "smit@@": 8205,
  "snap": 8206,
  "snor@@": 8207,
  "social": 8208,
  "sociali@@": 8209,
  "sold": 8210,
  "solo": 8211,
  "sonn@@": 8212,
  "soon@@": 8213,
  "sooners": 8214,
  "sortiert": 8215,
  "sparkl@@": 8216,
  "speeds": 8217,
  "speer": 8218,
  "spen@@": 8219,
  "spielenden": 8220,
  "spinn@@": 8221,
  "splatz": 8222,
  "sprit@@": 8223,
  "squats": 8224,
  "ssene": 8225,
  "stadtszene": 8226,
  "staffelei": 8227,
  "stamm": 8228,
  "stammeskleidung": 8229,
  "stapelt": 8230,
  "starring": 8231,
  "stars": 8232,
  "startlinie": 8233,
  "statur": 8234,
  "staubsauger": 8235,
  "steaks": 8236,
  "stehendes": 8237,
  "stel@@": 8238,
  "stem": 8239,
  "steuert": 8240,
  "stofftier": 8241,
  "stores": 8242,
  "storte": 8243,
  "straßenrennen": 8244,
  "streut": 8245,
  "striking": 8246,
  "strings": 8247,
  "stripe": 8248,
  "stro": 8249,
  "strom": 8250,
  "strugg@@": 8251,
  "stunde": 8252,
  "stunts": 8253,
  "sturm": 8254,
  "städ@@": 8255,
  "stücken": 8256,
  "stürzten": 8257,
  "sunbathing": 8258,
  "superman": 8259,
  "supermarket": 8260,
  "supermarkt": 8261,
  "supp@@": 8262,
  "support": 8263,
  "surfers": 8264,
  "swan": 8265,
  "sy": 8266,
  "säubert": 8267,
  "süßig@@": 8268,
  "tail@@": 8269,
  "tains": 8270,
  "tam@@": 8271,
  "tambour@@": 8272,
  "tankstelle": 8273,
  "tarp": 8274,
  "tauziehen": 8275,
  "te-@@": 8276,
  "technik": 8277,
  "tellern": 8278,
  "temple": 8279,
  "teria": 8280,
  "thick": 8281,
  "thor@@": 8282,
  "though": 8283,
  "ths": 8284,
  "tinten@@": 8285,
  "tippt": 8286,
  "tisches": 8287,
  "topless": 8288,
  "tracksuit": 8289,
  "traditionelle": 8290,
  "trak@@": 8291,
  "travels": 8292,
  "treadmill": 8293,
  "tree-@@": 8294,
  "tress": 8295,
  "tro": 8296,
  "trophy": 8297,
  "tropischen": 8298,
  "trottet": 8299,
  "trotting": 8300,
  "trüben": 8301,
  "tton": 8302,
  "tubes": 8303,
  "turkey": 8304,
  "twister": 8305,
  "typing": 8306,
  "tän@@": 8307,
  "tänzern": 8308,
  "türkisen": 8309,
  "u-bahnstation": 8310,
  "ub@@": 8311,
  "uch": 8312,
  "ukulele": 8313,
  "ume": 8314,
  "umten": 8315,
  "umzäunten": 8316,
  "unbekann@@": 8317,
  "unicef": 8318,
  "uns": 8319,
  "unt": 8320,
  "untergrund": 8321,
  "upwards": 8322,
  "uro": 8323,
  "usband": 8324,
  "used": 8325,
  "uth": 8326,
  "vacuum": 8327,
  "vacuuming": 8328,
  "vau@@": 8329,
  "verdi@@": 8330,
  "vering": 8331,
  "versteckt": 8332,
  "verteidiger": 8333,
  "veter@@": 8334,
  "vibrant": 8335,
  "videokamera": 8336,
  "videota@@": 8337,
  "violetter": 8338,
  "visor": 8339,
  "vogel@@": 8340,
  "vogelperspektive": 8341,
  "volkswagen": 8342,
  "volle": 8343,
  "volleyballspiel": 8344,
  "volunte@@": 8345,
  "voran": 8346,
  "vorbeil@@": 8347,
  "vro@@": 8348,
  "wachsen@@": 8349,
  "waff@@": 8350,
  "waffeln": 8351,
  "wanderung": 8352,
  "wandmaler@@": 8353,
  "warming": 8354,
  "warnweste": 8355,
  "wart": 8356,
  "wassermelonen": 8357,
  "wasserstraße": 8358,
  "watermelons": 8359,
  "waterski@@": 8360,
  "wea@@": 8361,
  "weder": 8362,
  "ween-@@": 8363,
  "weiblichen": 8364,
  "weigh@@": 8365,
  "weiß-schwarzer": 8366,
  "were": 8367,
  "wieder": 8368,
  "wilderness": 8369,
  "willi@@": 8370,
  "winterjacke": 8371,
  "wintertag": 8372,
  "wohnung": 8373,
  "woodland": 8374,
  "workman": 8375,
  "wrestlers": 8376,
  "written": 8377,
  "wäh@@": 8378,
  "wählt": 8379,
  "wärtssal@@": 8380,
  "wäsche@@": 8381,
  "wüsten@@": 8382,
  "xe": 8383,
  "xylophon": 8384,
  "xylophone": 8385,
  "year": 8386,
  "ysi@@": 8387,
  "zeitungen": 8388,
  "zentrum": 8389,
  "ziege": 8390,
  "zigarre": 8391,
  "zigen": 8392,
  "zubereiten": 8393,
  "zuhör@@": 8394,
  "zun@@": 8395,
  "zurecht": 8396,
  "zuschauer@@": 8397,
  "zutaten": 8398,
  "zweite": 8399,
  "äng@@": 8400,
  "ärm@@": 8401,
  "übers@@": 8402,
  "afroameri@@": 8403,
  "akkorde@@": 8404,
  "alter@@": 8405,
  "ame": 8406,
  "ansammlung": 8407,
  "any": 8408,
  "appe@@": 8409,
  "ath": 8410,
  "außen": 8411,
  "balk@@": 8412,
  "bathro@@": 8413,
  "bedi@@": 8414,
  "bedru@@": 8415,
  "bekann@@": 8416,
  "bes": 8417,
  "beschä@@": 8418,
  "bm@@": 8419,
  "botto@@": 8420,
  "brau@@": 8421,
  "brä@@": 8422,
  "bst": 8423,
  "burger": 8424,
  "cade": 8425,
  "celebra@@": 8426,
  "cer": 8427,
  "ceremon@@": 8428,
  "cir@@": 8429,
  "cl@@": 8430,
  "compet@@": 8431,
  "complet@@": 8432,
  "contain@@": 8433,
  "countr@@": 8434,
  "cours": 8435,
  "cray@@": 8436,
  "cular": 8437,
  "demon@@": 8438,
  "dges": 8439,
  "drag@@": 8440,
  "dunkl@@": 8441,
  "dy@@": 8442,
  "ef@@": 8443,
  "ehr@@": 8444,
  "eit@@": 8445,
  "elektroni@@": 8446,
  "eng@@": 8447,
  "ep": 8448,
  "erinnen": 8449,
  "erleu@@": 8450,
  "ett": 8451,
  "fabri@@": 8452,
  "farben@@": 8453,
  "fashi@@": 8454,
  "ffy": 8455,
  "flö@@": 8456,
  "freil@@": 8457,
  "freu@@": 8458,
  "gebi@@": 8459,
  "gebo@@": 8460,
  "gebunden": 8461,
  "gebung": 8462,
  "gemä@@": 8463,
  "gerü@@": 8464,
  "geschnitt@@": 8465,
  "ggles": 8466,
  "ghts": 8467,
  "git@@": 8468,
  "gon": 8469,
  "gos": 8470,
  "größ@@": 8471,
  "gymnasti@@": 8472,
  "halsk@@": 8473,
  "haw@@": 8474,
  "heav@@": 8475,
  "heira@@": 8476,
  "heit@@": 8477,
  "horse@@": 8478,
  "häl@@": 8479,
  "inclu@@": 8480,
  "infla@@": 8481,
  "ings@@": 8482,
  "irgen@@": 8483,
  "iten@@": 8484,
  "itet": 8485,
  "jump@@": 8486,
  "kani@@": 8487,
  "keiten": 8488,
  "ket": 8489,
  "key": 8490,
  "kleideter": 8491,
  "kopft@@": 8492,
  "köpfi@@": 8493,
  "liqu@@": 8494,
  "luftball@@": 8495,
  "ländi@@": 8496,
  "mai@@": 8497,
  "mask@@": 8498,
  "mets": 8499,
  "micro@@": 8500,
  "mikro@@": 8501,
  "mittl@@": 8502,
  "mpe": 8503,
  "near@@": 8504,
  "nei@@": 8505,
  "new@@": 8506,
  "night@@": 8507,
  "not@@": 8508,
  "ong@@": 8509,
  "orange@@": 8510,
  "ore": 8511,
  "orientali@@": 8512,
  "partici@@": 8513,
  "patri@@": 8514,
  "pers@@": 8515,
  "pickni@@": 8516,
  "pipes": 8517,
  "plak@@": 8518,
  "poin@@": 8519,
  "polizi@@": 8520,
  "port": 8521,
  "prä@@": 8522,
  "q": 8523,
  "rasen@@": 8524,
  "recor@@": 8525,
  "refer@@": 8526,
  "reflektier@@": 8527,
  "rekla@@": 8528,
  "ribb@@": 8529,
  "rick@@": 8530,
  "rosaro@@": 8531,
  "rothaari@@": 8532,
  "rubs": 8533,
  "sail@@": 8534,
  "scal@@": 8535,
  "schirm@@": 8536,
  "schlie@@": 8537,
  "schlo@@": 8538,
  "schmu@@": 8539,
  "schwanz": 8540,
  "schütt@@": 8541,
  "sci@@": 8542,
  "scoo@@": 8543,
  "scope": 8544,
  "skop": 8545,
  "smi@@": 8546,
  "snowboar@@": 8547,
  "soa@@": 8548,
  "sold@@": 8549,
  "sprun@@": 8550,
  "ssion@@": 8551,
  "staff@@": 8552,
  "stam@@": 8553,
  "stea@@": 8554,
  "stik@@": 8555,
  "stir@@": 8556,
  "stretched": 8557,
  "strom@@": 8558,
  "stud@@": 8559,
  "stun@@": 8560,
  "stung": 8561,
  "tab@@": 8562,
  "tar@@": 8563,
  "tech@@": 8564,
  "teena@@": 8565,
  "tetes": 8566,
  "tons": 8567,
  "trainings@@": 8568,
  "tramp@@": 8569,
  "trav@@": 8570,
  "tut@@": 8571,
  "tz": 8572,
  "ula": 8573,
  "ulptur": 8574,
  "ungewöhn@@": 8575,
  "ups": 8576,
  "usi@@": 8577,
  "vertei@@": 8578,
  "visi@@": 8579,
  "volk@@": 8580,
  "watte": 8581,
  "web@@": 8582,
  "wehr@@": 8583,
  "weibli@@": 8584,
  "weight": 8585,
  "well@@": 8586,
  "wen": 8587,
  "whe@@": 8588,
  "wood@@": 8589,
  "xt": 8590,
  "zahl@@": 8591,
  "zeu@@": 8592,
  "zut@@": 8593,
  "ßi@@": 8594,
  "ängt": 8595,
  "öff@@": 8596,
  "öh@@": 8597,
  "öpfen": 8598,
  "-covered": 8599,
  "/": 8600,
  "aga@@": 8601,
  "akti@@": 8602,
  "ama@@": 8603,
  "angebo@@": 8604,
  "ators": 8605,
  "auen": 8606,
  "aufga@@": 8607,
  "ba": 8608,
  "balan@@": 8609,
  "balanci@@": 8610,
  "ballspieler": 8611,
  "beoba@@": 8612,
  "berei@@": 8613,
  "beu@@": 8614,
  "bewer@@": 8615,
  "bewölk@@": 8616,
  "blase": 8617,
  "bogen@@": 8618,
  "bohr@@": 8619,
  "bot@@": 8620,
  "briti@@": 8621,
  "brow@@": 8622,
  "buch@@": 8623,
  "bung": 8624,
  "butter@@": 8625,
  "care@@": 8626,
  "carri@@": 8627,
  "cell@@": 8628,
  "chain@@": 8629,
  "cheer@@": 8630,
  "chtern": 8631,
  "chts@@": 8632,
  "cit@@": 8633,
  "consi@@": 8634,
  "cow@@": 8635,
  "cowbo@@": 8636,
  "crou@@": 8637,
  "ctive": 8638,
  "custo@@": 8639,
  "dess@@": 8640,
  "dition@@": 8641,
  "dudel@@": 8642,
  "dur@@": 8643,
  "ees": 8644,
  "eg@@": 8645,
  "eite": 8646,
  "elf": 8647,
  "ena": 8648,
  "farbenem": 8649,
  "fic": 8650,
  "figh@@": 8651,
  "fir@@": 8652,
  "fisher@@": 8653,
  "garden@@": 8654,
  "gebil@@": 8655,
  "gefä@@": 8656,
  "gepunk@@": 8657,
  "geschmü@@": 8658,
  "gewi@@": 8659,
  "gewin@@": 8660,
  "gewä@@": 8661,
  "gh": 8662,
  "ghtly": 8663,
  "gie@@": 8664,
  "gn": 8665,
  "grima@@": 8666,
  "gum@@": 8667,
  "haube": 8668,
  "hne": 8669,
  "hre": 8670,
  "hula-ho@@": 8671,
  "hy@@": 8672,
  "ien@@": 8673,
  "iler": 8674,
  "imbi@@": 8675,
  "inc@@": 8676,
  "ired": 8677,
  "iro@@": 8678,
  "irokesen@@": 8679,
  "ittel": 8680,
  "jam@@": 8681,
  "jeman@@": 8682,
  "jewel@@": 8683,
  "jogg@@": 8684,
  "kell@@": 8685,
  "ketten@@": 8686,
  "kimon@@": 8687,
  "klei@@": 8688,
  "labor@@": 8689,
  "lass@@": 8690,
  "lean@@": 8691,
  "leh@@": 8692,
  "lob@@": 8693,
  "lok@@": 8694,
  "long@@": 8695,
  "mates": 8696,
  "mati@@": 8697,
  "merk@@": 8698,
  "met": 8699,
  "middle-@@": 8700,
  "mirro@@": 8701,
  "mly": 8702,
  "mod@@": 8703,
  "monit@@": 8704,
  "mpe@@": 8705,
  "ness": 8706,
  "neugeboren@@": 8707,
  "nisse": 8708,
  "note@@": 8709,
  "obdachlo@@": 8710,
  "obje@@": 8711,
  "op": 8712,
  "oppon@@": 8713,
  "ored": 8714,
  "org@@": 8715,
  "oth@@": 8716,
  "pedestri@@": 8717,
  "peop@@": 8718,
  "phones": 8719,
  "porträ@@": 8720,
  "radre@@": 8721,
  "rads": 8722,
  "rail@@": 8723,
  "rain@@": 8724,
  "ruder@@": 8725,
  "ruhi@@": 8726,
  "rum": 8727,
  "rän@@": 8728,
  "schach@@": 8729,
  "schaften": 8730,
  "schaufen@@": 8731,
  "schir@@": 8732,
  "schlam@@": 8733,
  "schlauch@@": 8734,
  "school@@": 8735,
  "schub@@": 8736,
  "schwe@@": 8737,
  "schütz@@": 8738,
  "sculp@@": 8739,
  "selt@@": 8740,
  "servi@@": 8741,
  "shado@@": 8742,
  "sporth@@": 8743,
  "spr@@": 8744,
  "stad@@": 8745,
  "staubsau@@": 8746,
  "stisch": 8747,
  "store@@": 8748,
  "stret@@": 8749,
  "strick@@": 8750,
  "strü@@": 8751,
  "surroun@@": 8752,
  "swim@@": 8753,
  "synch@@": 8754,
  "sän@@": 8755,
  "säu@@": 8756,
  "tattoo@@": 8757,
  "tchen": 8758,
  "tell@@": 8759,
  "theat@@": 8760,
  "thro@@": 8761,
  "tlichen": 8762,
  "tradition@@": 8763,
  "trie@@": 8764,
  "tropi@@": 8765,
  "trun@@": 8766,
  "twi@@": 8767,
  "u-bahn@@": 8768,
  "uft": 8769,
  "ulti@@": 8770,
  "under@@": 8771,
  "universit@@": 8772,
  "uring": 8773,
  "ush": 8774,
  "var@@": 8775,
  "verheira@@": 8776,
  "verteidi@@": 8777,
  "vio@@": 8778,
  "vision": 8779,
  "wagen@@": 8780,
  "wards": 8781,
  "wassermel@@": 8782,
  "watermel@@": 8783,
  "zierten": 8784,
  "ßen@@": 8785,
  "äufer": 8786,
  "übergewich@@": 8787,
  "ür@@": 8788,
  "%": 8789,
  ",@@": 8790,
  "@": 8791,
  "adi@@": 8792,
  "admi@@": 8793,
  "afrikani@@": 8794,
  "akro@@": 8795,
  "anda": 8796,
  "ange": 8797,
  "angen": 8798,
  "angezogen@@": 8799,
  "anhän@@": 8800,
  "anwei@@": 8801,
  "ara@@": 8802,
  "arren": 8803,
  "ater": 8804,
  "att@@": 8805,
  "badmin@@": 8806,
  "balcon@@": 8807,
  "bandan@@": 8808,
  "bbing": 8809,
  "beach@@": 8810,
  "begeister@@": 8811,
  "bele@@": 8812,
  "beleb@@": 8813,
  "bere@@": 8814,
  "blan@@": 8815,
  "blon@@": 8816,
  "boul@@": 8817,
  "bucks": 8818,
  "bulldo@@": 8819,
  "cau@@": 8820,
  "cause": 8821,
  "chine@@": 8822,
  "chop@@": 8823,
  "chtung": 8824,
  "circ@@": 8825,
  "clean@@": 8826,
  "comp@@": 8827,
  "compe@@": 8828,
  "contro@@": 8829,
  "convers@@": 8830,
  "cour@@": 8831,
  "daugh@@": 8832,
  "deten": 8833,
  "dings": 8834,
  "dio": 8835,
  "drahtzaun": 8836,
  "drit@@": 8837,
  "drop": 8838,
  "eignis": 8839,
  "einsam@@": 8840,
  "ek": 8841,
  "electro@@": 8842,
  "elefan@@": 8843,
  "enjo@@": 8844,
  "enthusi@@": 8845,
  "entri@@": 8846,
  "entrum": 8847,
  "equip@@": 8848,
  "erial": 8849,
  "erungen": 8850,
  "eting": 8851,
  "famili@@": 8852,
  "fei@@": 8853,
  "fel": 8854,
  "fiel@@": 8855,
  "fig@@": 8856,
  "flag@@": 8857,
  "fontän@@": 8858,
  "freund@@": 8859,
  "frisbe@@": 8860,
  "frisbee-@@": 8861,
  "gam@@": 8862,
  "ge-@@": 8863,
  "geblüm@@": 8864,
  "gebun@@": 8865,
  "gepark@@": 8866,
  "gesell@@": 8867,
  "getr@@": 8868,
  "gewän@@": 8869,
  "gewöhn@@": 8870,
  "grund": 8871,
  "guit@@": 8872,
  "gung@@": 8873,
  "gymna@@": 8874,
  "hawk": 8875,
  "hobenen": 8876,
  "horizon@@": 8877,
  "hydr@@": 8878,
  "hölzer@@": 8879,
  "inst": 8880,
  "ird": 8881,
  "ire": 8882,
  "is@@": 8883,
  "jen@@": 8884,
  "jug@@": 8885,
  "jum@@": 8886,
  "kaffe@@": 8887,
  "kamer@@": 8888,
  "kin": 8889,
  "kis": 8890,
  "klapp@@": 8891,
  "knei@@": 8892,
  "kostü@@": 8893,
  "kreu@@": 8894,
  "kreuz@@": 8895,
  "lamp@@": 8896,
  "langärmel@@": 8897,
  "lap@@": 8898,
  "lear@@": 8899,
  "lege@@": 8900,
  "leot@@": 8901,
  "letter": 8902,
  "llt": 8903,
  "long-@@": 8904,
  "magaz@@": 8905,
  "marin@@": 8906,
  "marsch@@": 8907,
  "mbi@@": 8908,
  "mea@@": 8909,
  "ment@@": 8910,
  "mers": 8911,
  "mmern": 8912,
  "mmert": 8913,
  "mmerung": 8914,
  "mobi@@": 8915,
  "motori@@": 8916,
  "mounta@@": 8917,
  "muzz@@": 8918,
  "nati@@": 8919,
  "niedri@@": 8920,
  "nier": 8921,
  "nung": 8922,
  "pain@@": 8923,
  "parti@@": 8924,
  "participat@@": 8925,
  "passagi@@": 8926,
  "peri@@": 8927,
  "perü@@": 8928,
  "pfa@@": 8929,
  "pfei@@": 8930,
  "pho@@": 8931,
  "pier@@": 8932,
  "portra@@": 8933,
  "prepar@@": 8934,
  "produ@@": 8935,
  "prüfen": 8936,
  "ption": 8937,
  "quad@@": 8938,
  "quar@@": 8939,
  "read@@": 8940,
  "religi@@": 8941,
  "richter": 8942,
  "ro": 8943,
  "rout@@": 8944,
  "saxof@@": 8945,
  "schmet@@": 8946,
  "schneebedeck@@": 8947,
  "schnurr@@": 8948,
  "schrift": 8949,
  "schwin@@": 8950,
  "sculpt@@": 8951,
  "secur@@": 8952,
  "self": 8953,
  "sent@@": 8954,
  "separ@@": 8955,
  "shop@@": 8956,
  "short-@@": 8957,
  "sigen": 8958,
  "simi@@": 8959,
  "siting": 8960,
  "sni@@": 8961,
  "sof@@": 8962,
  "som@@": 8963,
  "spea@@": 8964,
  "ssy": 8965,
  "stair@@": 8966,
  "stau@@": 8967,
  "staub@@": 8968,
  "steh@@": 8969,
  "strüm@@": 8970,
  "sur": 8971,
  "sweste": 8972,
  "swi@@": 8973,
  "sy@@": 8974,
  "sym@@": 8975,
  "säug@@": 8976,
  "tags@@": 8977,
  "taining": 8978,
  "tea@@": 8979,
  "teenager@@": 8980,
  "tei@@": 8981,
  "teilneh@@": 8982,
  "teri@@": 8983,
  "terri@@": 8984,
  "testelle": 8985,
  "tig@@": 8986,
  "tou@@": 8987,
  "touri@@": 8988,
  "transport@@": 8989,
  "trin@@": 8990,
  "trompe@@": 8991,
  "trä@@": 8992,
  "tures": 8993,
  "ump@@": 8994,
  "unbefesti@@": 8995,
  "unters@@": 8996,
  "urr@@": 8997,
  "vin@@": 8998,
  "vy": 8999,
  "walmar@@": 9000,
  "wart@@": 9001,
  "wassers@@": 9002,
  "wettbewer@@": 9003,
  "woo@@": 9004,
  "worfen": 9005,
  "x-@@": 9006,
  "ym@@": 9007,
  "zenden": 9008,
  "zur@@": 9009,
  "zw@@": 9010,
  "zü@@": 9011,
  "ärmel@@": 9012,
  "öffnung": 9013,
  "ü": 9014,
  "übun@@": 9015,
  "ünst@@": 9016,
  "-skinned": 9017,
  "abo@@": 9018,
  "acro@@": 9019,
  "adul@@": 9020,
  "alie": 9021,
  "anie": 9022,
  "anst@@": 9023,
  "aro@@": 9024,
  "arr@@": 9025,
  "arring": 9026,
  "ata": 9027,
  "aufger@@": 9028,
  "backpa@@": 9029,
  "beauti@@": 9030,
  "beisam@@": 9031,
  "beschäf@@": 9032,
  "blüm@@": 9033,
  "bock@@": 9034,
  "bracht": 9035,
  "bran@@": 9036,
  "brocken": 9037,
  "by@@": 9038,
  "cand@@": 9039,
  "cano@@": 9040,
  "cation": 9041,
  "chens": 9042,
  "ciali@@": 9043,
  "cket": 9044,
  "cobb@@": 9045,
  "cock@@": 9046,
  "costum@@": 9047,
  "cran@@": 9048,
  "cue": 9049,
  "cycle": 9050,
  "disc@@": 9051,
  "don": 9052,
  "door@@": 9053,
  "dunkelhäuti@@": 9054,
  "dün@@": 9055,
  "eben": 9056,
  "eless": 9057,
  "ens@@": 9058,
  "entfern@@": 9059,
  "entlan@@": 9060,
  "erisch": 9061,
  "erwachsen@@": 9062,
  "fami@@": 9063,
  "fass@@": 9064,
  "fee@@": 9065,
  "feln": 9066,
  "fon": 9067,
  "frau@@": 9068,
  "frie@@": 9069,
  "ful@@": 9070,
  "fußgängerüber@@": 9071,
  "fän@@": 9072,
  "fün@@": 9073,
  "galerie": 9074,
  "gall@@": 9075,
  "gar": 9076,
  "gegneri@@": 9077,
  "geldbör@@": 9078,
  "gement": 9079,
  "gemäl@@": 9080,
  "geno@@": 9081,
  "gesä@@": 9082,
  "gewich@@": 9083,
  "gewicht": 9084,
  "heraush@@": 9085,
  "hnen@@": 9086,
  "hälter": 9087,
  "hür@@": 9088,
  "infan@@": 9089,
  "ington": 9090,
  "jugg@@": 9091,
  "kapu@@": 9092,
  "karu@@": 9093,
  "kei@@": 9094,
  "koff@@": 9095,
  "käfi@@": 9096,
  "käm@@": 9097,
  "label@@": 9098,
  "lad@@": 9099,
  "later@@": 9100,
  "legestelle": 9101,
  "lett": 9102,
  "liefer@@": 9103,
  "lil@@": 9104,
  "loun@@": 9105,
  "lows": 9106,
  "mahl@@": 9107,
  "maler@@": 9108,
  "mannequ@@": 9109,
  "menten": 9110,
  "mexi@@": 9111,
  "mierte": 9112,
  "mierter": 9113,
  "mock": 9114,
  "monopol@@": 9115,
  "mp": 9116,
  "mäher": 9117,
  "männ@@": 9118,
  "mögli@@": 9119,
  "mün@@": 9120,
  "namens@@": 9121,
  "nament": 9122,
  "nass@@": 9123,
  "navig@@": 9124,
  "neck@@": 9125,
  "neopren@@": 9126,
  "num@@": 9127,
  "näch@@": 9128,
  "oce@@": 9129,
  "od@@": 9130,
  "onloo@@": 9131,
  "othek": 9132,
  "pa": 9133,
  "paral@@": 9134,
  "pfer": 9135,
  "phon": 9136,
  "pian@@": 9137,
  "pic@@": 9138,
  "ping@@": 9139,
  "pizz@@": 9140,
  "pony@@": 9141,
  "potat@@": 9142,
  "präsen@@": 9143,
  "pulli": 9144,
  "pump@@": 9145,
  "quarter@@": 9146,
  "radrenn@@": 9147,
  "reiche": 9148,
  "reklame@@": 9149,
  "restauran@@": 9150,
  "rik@@": 9151,
  "rüstung": 9152,
  "sanddün@@": 9153,
  "schut@@": 9154,
  "schwi@@": 9155,
  "schäfer@@": 9156,
  "scienti@@": 9157,
  "scream@@": 9158,
  "scu@@": 9159,
  "seicht@@": 9160,
  "shin@@": 9161,
  "shir@@": 9162,
  "skinned": 9163,
  "snowboard@@": 9164,
  "sonnenunter@@": 9165,
  "sonni@@": 9166,
  "spannt": 9167,
  "spot@@": 9168,
  "spren@@": 9169,
  "sprü@@": 9170,
  "ssa@@": 9171,
  "ssiert": 9172,
  "steig": 9173,
  "ston": 9174,
  "strumpf@@": 9175,
  "stüten": 9176,
  "suspen@@": 9177,
  "syn@@": 9178,
  "synchro@@": 9179,
  "synchroni@@": 9180,
  "tain@@": 9181,
  "telefonz@@": 9182,
  "trol@@": 9183,
  "trägern": 9184,
  "tter@@": 9185,
  "ttery": 9186,
  "ttet": 9187,
  "twagen": 9188,
  "umarm@@": 9189,
  "unusu@@": 9190,
  "ussion": 9191,
  "uta@@": 9192,
  "vacuum@@": 9193,
  "vari@@": 9194,
  "vement": 9195,
  "veranst@@": 9196,
  "veranstalt@@": 9197,
  "verkaufs@@": 9198,
  "vern": 9199,
  "vice": 9200,
  "vie": 9201,
  "vord@@": 9202,
  "vortra@@": 9203,
  "wasserspren@@": 9204,
  "windo@@": 9205,
  "woll@@": 9206,
  "worl@@": 9207,
  "wrest@@": 9208,
  "zau@@": 9209,
  "zeige": 9210,
  "zig@@": 9211,
  "zuschau@@": 9212,
  "zün@@": 9213,
  "é": 9214,
  "é@@": 9215,
  "ñ@@": 9216,
  "7@@": 9217,
  "acrobati@@": 9218,
  "agen": 9219,
  "allen@@": 9220,
  "amerikani@@": 9221,
  "ander": 9222,
  "anz": 9223,
  "approa@@": 9224,
  "arbeiter@@": 9225,
  "audi@@": 9226,
  "aufgerei@@": 9227,
  "ause": 9228,
  "ausseh@@": 9229,
  "beau@@": 9230,
  "bede@@": 9231,
  "berü@@": 9232,
  "beut@@": 9233,
  "bewe@@": 9234,
  "beweg@@": 9235,
  "bigen": 9236,
  "bill@@": 9237,
  "billar@@": 9238,
  "blea@@": 9239,
  "blond-@@": 9240,
  "blue@@": 9241,
  "board@@": 9242,
  "bong@@": 9243,
  "boo": 9244,
  "born": 9245,
  "bott@@": 9246,
  "bou@@": 9247,
  "brett@@": 9248,
  "brides@@": 9249,
  "brünet@@": 9250,
  "buff@@": 9251,
  "bün@@": 9252,
  "bür@@": 9253,
  "camer@@": 9254,
  "cele@@": 9255,
  "cers": 9256,
  "chur@@": 9257,
  "cil": 9258,
  "class@@": 9259,
  "classi@@": 9260,
  "close@@": 9261,
  "cture": 9262,
  "dekora@@": 9263,
  "demonstr@@": 9264,
  "deo": 9265,
  "digkeit": 9266,
  "donal@@": 9267,
  "drahtz@@": 9268,
  "dread@@": 9269,
  "drin@@": 9270,
  "eht": 9271,
  "einkaufsz@@": 9272,
  "ele": 9273,
  "emand": 9274,
  "emon@@": 9275,
  "ental": 9276,
  "enti@@": 9277,
  "entran@@": 9278,
  "entspan@@": 9279,
  "escal@@": 9280,
  "eth@@": 9281,
  "even@@": 9282,
  "ever@@": 9283,
  "exer@@": 9284,
  "felsvor@@": 9285,
  "ffee": 9286,
  "fini@@": 9287,
  "fitne@@": 9288,
  "fläch@@": 9289,
  "flüssig@@": 9290,
  "fotografi@@": 9291,
  "führ@@": 9292,
  "gebau@@": 9293,
  "gebildet": 9294,
  "gehö@@": 9295,
  "gehü@@": 9296,
  "gem@@": 9297,
  "gepflaster@@": 9298,
  "gerer": 9299,
  "gewäss@@": 9300,
  "gir@@": 9301,
  "gitar@@": 9302,
  "gner": 9303,
  "graff@@": 9304,
  "graffit@@": 9305,
  "grä@@": 9306,
  "gür@@": 9307,
  "hals@@": 9308,
  "hard@@": 9309,
  "harmoni@@": 9310,
  "hill@@": 9311,
  "hout": 9312,
  "hug@@": 9313,
  "ima@@": 9314,
  "invol@@": 9315,
  "irts": 9316,
  "itt": 9317,
  "jog@@": 9318,
  "karo@@": 9319,
  "kehr@@": 9320,
  "kets": 9321,
  "klassen@@": 9322,
  "konzentri@@": 9323,
  "kunstwer@@": 9324,
  "la-@@": 9325,
  "lapt@@": 9326,
  "leich@@": 9327,
  "lein@@": 9328,
  "letes": 9329,
  "litt@@": 9330,
  "lly": 9331,
  "locks": 9332,
  "läu@@": 9333,
  "mach": 9334,
  "manö@@": 9335,
  "marath@@": 9336,
  "masch@@": 9337,
  "maschen@@": 9338,
  "mc@@": 9339,
  "mcdonal@@": 9340,
  "meiß@@": 9341,
  "mern": 9342,
  "mir@@": 9343,
  "mmer@@": 9344,
  "moto@@": 9345,
  "motocross@@": 9346,
  "moun@@": 9347,
  "mpf@@": 9348,
  "muse@@": 9349,
  "müllton@@": 9350,
  "nea@@": 9351,
  "neigh@@": 9352,
  "ners": 9353,
  "oba@@": 9354,
  "oph@@": 9355,
  "or-@@": 9356,
  "orn@@": 9357,
  "outf@@": 9358,
  "pajam@@": 9359,
  "paper@@": 9360,
  "papi@@": 9361,
  "partment": 9362,
  "pfel": 9363,
  "pflaster@@": 9364,
  "ples": 9365,
  "posi@@": 9366,
  "possi@@": 9367,
  "ppies": 9368,
  "presen@@": 9369,
  "pullo@@": 9370,
  "puzz@@": 9371,
  "rah@@": 9372,
  "rand@@": 9373,
  "rasse": 9374,
  "reflekti@@": 9375,
  "rench": 9376,
  "repair@@": 9377,
  "richt@@": 9378,
  "ried": 9379,
  "rollersk@@": 9380,
  "roof@@": 9381,
  "räder": 9382,
  "sammlung": 9383,
  "scaffol@@": 9384,
  "scen@@": 9385,
  "schauf@@": 9386,
  "schlit@@": 9387,
  "schmut@@": 9388,
  "schnüff@@": 9389,
  "schoko@@": 9390,
  "schriften": 9391,
  "scul@@": 9392,
  "secon@@": 9393,
  "seli@@": 9394,
  "sell@@": 9395,
  "sely": 9396,
  "sentation": 9397,
  "shaw@@": 9398,
  "shoul@@": 9399,
  "sidel@@": 9400,
  "silhou@@": 9401,
  "sino": 9402,
  "sklei@@": 9403,
  "sle": 9404,
  "smar@@": 9405,
  "srichter": 9406,
  "ssi": 9407,
  "ssig@@": 9408,
  "stamme@@": 9409,
  "steiger": 9410,
  "stert": 9411,
  "stin@@": 9412,
  "strin@@": 9413,
  "stuff@@": 9414,
  "swee@@": 9415,
  "swesten": 9416,
  "swin@@": 9417,
  "symbo@@": 9418,
  "tax@@": 9419,
  "ters@@": 9420,
  "thi@@": 9421,
  "tial": 9422,
  "togra@@": 9423,
  "torhü@@": 9424,
  "tos": 9425,
  "tour@@": 9426,
  "trei@@": 9427,
  "tribün@@": 9428,
  "troph@@": 9429,
  "ttert": 9430,
  "tty": 9431,
  "two@@": 9432,
  "u-@@": 9433,
  "undert": 9434,
  "urs": 9435,
  "veral": 9436,
  "versamm@@": 9437,
  "verschne@@": 9438,
  "versu@@": 9439,
  "vis@@": 9440,
  "vri@@": 9441,
  "wai@@": 9442,
  "wash@@": 9443,
  "währen@@": 9444,
  "wärt@@": 9445,
  "xing": 9446,
  "xy@@": 9447,
  "xylo@@": 9448,
  "ympi@@": 9449,
  "zeremon@@": 9450,
  "zist": 9451,
  "zogen": 9452,
  "zogen@@": 9453,
  "$": 9454,
  "&apos;@@": 9455,
  "-american": 9456,
  "=": 9457,
  "_": 9458,
  "aband@@": 9459,
  "accor@@": 9460,
  "achter@@": 9461,
  "adju@@": 9462,
  "af@@": 9463,
  "after@@": 9464,
  "agi@@": 9465,
  "aku@@": 9466,
  "akustik@@": 9467,
  "amer@@": 9468,
  "amo@@": 9469,
  "amü@@": 9470,
  "aquari@@": 9471,
  "arre": 9472,
  "asiati@@": 9473,
  "attemp@@": 9474,
  "aufblas@@": 9475,
  "auft": 9476,
  "auran@@": 9477,
  "auss@@": 9478,
  "automat@@": 9479,
  "bab@@": 9480,
  "bad@@": 9481,
  "bal": 9482,
  "ban": 9483,
  "barfü@@": 9484,
  "bchen": 9485,
  "bed@@": 9486,
  "bekan@@": 9487,
  "bene@@": 9488,
  "benut@@": 9489,
  "betra@@": 9490,
  "bewal@@": 9491,
  "bies": 9492,
  "blas@@": 9493,
  "bora@@": 9494,
  "borne": 9495,
  "brand@@": 9496,
  "brown@@": 9497,
  "brun@@": 9498,
  "bub@@": 9499,
  "burg@@": 9500,
  "bäl@@": 9501,
  "bör@@": 9502,
  "ca-@@": 9503,
  "caf@@": 9504,
  "cany@@": 9505,
  "cated": 9506,
  "cauc@@": 9507,
  "chal@@": 9508,
  "chalk@@": 9509,
  "cham@@": 9510,
  "checker@@": 9511,
  "cident": 9512,
  "climb@@": 9513,
  "clou@@": 9514,
  "comput@@": 9515,
  "conc@@": 9516,
  "concre@@": 9517,
  "contra@@": 9518,
  "dau@@": 9519,
  "deco@@": 9520,
  "dent": 9521,
  "dest": 9522,
  "differ@@": 9523,
  "dium": 9524,
  "dt": 9525,
  "dump@@": 9526,
  "ehmen": 9527,
  "ehr": 9528,
  "eiscre@@": 9529,
  "elect@@": 9530,
  "elek@@": 9531,
  "erseite": 9532,
  "erzeug@@": 9533,
  "establi@@": 9534,
  "eys": 9535,
  "fac@@": 9536,
  "flau@@": 9537,
  "flops": 9538,
  "foli@@": 9539,
  "footed": 9540,
  "frieden@@": 9541,
  "froren@@": 9542,
  "fted": 9543,
  "füllten": 9544,
  "geflo@@": 9545,
  "gepf@@": 9546,
  "gepä@@": 9547,
  "geschä@@": 9548,
  "gesti@@": 9549,
  "gestiku@@": 9550,
  "gestrei@@": 9551,
  "gestreif@@": 9552,
  "gical": 9553,
  "glied": 9554,
  "gray@@": 9555,
  "gue": 9556,
  "guitar@@": 9557,
  "gul@@": 9558,
  "handwer@@": 9559,
  "herau@@": 9560,
  "heraushän@@": 9561,
  "hom@@": 9562,
  "hospit@@": 9563,
  "hub@@": 9564,
  "hula-@@": 9565,
  "hula-hoop-@@": 9566,
  "häuti@@": 9567,
  "höl@@": 9568,
  "ih@@": 9569,
  "individu@@": 9570,
  "indu@@": 9571,
  "inju@@": 9572,
  "irt": 9573,
  "jewe@@": 9574,
  "jugend@@": 9575,
  "kab@@": 9576,
  "kaja@@": 9577,
  "kajak@@": 9578,
  "karre": 9579,
  "kastan@@": 9580,
  "kleidet": 9581,
  "konstruk@@": 9582,
  "köpfiger": 9583,
  "lade@@": 9584,
  "lared": 9585,
  "laugh@@": 9586,
  "legg@@": 9587,
  "leimer": 9588,
  "lichkeit": 9589,
  "ligi@@": 9590,
  "läch@@": 9591,
  "mals": 9592,
  "marschi@@": 9593,
  "milit@@": 9594,
  "militä@@": 9595,
  "mpft": 9596,
  "mur@@": 9597,
  "män@@": 9598,
  "mül@@": 9599,
  "neben@@": 9600,
  "numer@@": 9601,
  "obsta@@": 9602,
  "old@@": 9603,
  "orient@@": 9604,
  "ory": 9605,
  "outfiel@@": 9606,
  "ow": 9607,
  "pating": 9608,
  "perform@@": 9609,
  "performan@@": 9610,
  "perspektive": 9611,
  "pflo@@": 9612,
  "pfü@@": 9613,
  "pierc@@": 9614,
  "pig@@": 9615,
  "platt@@": 9616,
  "pod": 9617,
  "police@@": 9618,
  "practi@@": 9619,
  "publi@@": 9620,
  "pull@@": 9621,
  "py@@": 9622,
  "pär@@": 9623,
  "q@@": 9624,
  "quo@@": 9625,
  "race@@": 9626,
  "rece@@": 9627,
  "ree": 9628,
  "repa@@": 9629,
  "repar@@": 9630,
  "rested": 9631,
  "ricksha@@": 9632,
  "riksch@@": 9633,
  "rosti@@": 9634,
  "runn@@": 9635,
  "rying": 9636,
  "samm@@": 9637,
  "sax@@": 9638,
  "schacht@@": 9639,
  "scheinlich": 9640,
  "schied@@": 9641,
  "schl@@": 9642,
  "schlen@@": 9643,
  "schwa@@": 9644,
  "schwar@@": 9645,
  "selbe": 9646,
  "shal@@": 9647,
  "shepher@@": 9648,
  "shirt@@": 9649,
  "shment": 9650,
  "silhouet@@": 9651,
  "skap@@": 9652,
  "smart@@": 9653,
  "snea@@": 9654,
  "spark": 9655,
  "sque@@": 9656,
  "squee@@": 9657,
  "ssell": 9658,
  "ssor": 9659,
  "stab@@": 9660,
  "stening": 9661,
  "strau@@": 9662,
  "stromschn@@": 9663,
  "struk@@": 9664,
  "stures": 9665,
  "sungen": 9666,
  "suring": 9667,
  "tender": 9668,
  "tently": 9669,
  "thum@@": 9670,
  "tooth@@": 9671,
  "tory": 9672,
  "towar@@": 9673,
  "track@@": 9674,
  "traf@@": 9675,
  "treadmi@@": 9676,
  "tting": 9677,
  "ulen": 9678,
  "unice@@": 9679,
  "uniform@@": 9680,
  "unord@@": 9681,
  "unordent@@": 9682,
  "unte@@": 9683,
  "untersu@@": 9684,
  "usk": 9685,
  "utieren": 9686,
  "vel": 9687,
  "vergnü@@": 9688,
  "verschie@@": 9689,
  "verwir@@": 9690,
  "vibran@@": 9691,
  "volley@@": 9692,
  "vorbe@@": 9693,
  "weih@@": 9694,
  "wel": 9695,
  "wheelbar@@": 9696,
  "yar@@": 9697,
  "yho@@": 9698,
  "za": 9699,
  "zurü@@": 9700,
  "zylin@@": 9701,
  "zäunten": 9702,
  "à": 9703,
  "äht": 9704,
  "älter@@": 9705,
  "äumen": 9706,
  "è@@": 9707,
  "öhn@@": 9708,
  "öser": 9709,
  "üb@@": 9710,
  "überda@@": 9711
}